/**
  ******************************************************************************
  * @file    mnist_data_params.c
  * @author  AST Embedded Analytics Research Platform
  * @date    2026-03-06T00:18:09+0100
  * @brief   AI Tool Automatic Code Generator for Embedded NN computing
  ******************************************************************************
  * Copyright (c) 2026 STMicroelectronics.
  * All rights reserved.
  *
  * This software is licensed under terms that can be found in the LICENSE file
  * in the root directory of this software component.
  * If no LICENSE file comes with this software, it is provided AS-IS.
  ******************************************************************************
  */

#include "mnist_data_params.h"


/**  Activations Section  ****************************************************/
ai_handle g_mnist_activations_table[1 + 2] = {
  AI_HANDLE_PTR(AI_MAGIC_MARKER),
  AI_HANDLE_PTR(NULL),
  AI_HANDLE_PTR(AI_MAGIC_MARKER),
};




/**  Weights Section  ********************************************************/
AI_ALIGNED(32)
const ai_u64 s_mnist_weights_array_u64[13349] = {
  0x3e3de82bbdddf617U, 0x3e7f6c023e94c3ceU, 0x3d6ae6b23dc5a97bU, 0x3e68a474be1d5fdaU,
  0x3e26eb383ec0eb28U, 0x3e90fded3e132afdU, 0x3edbc53a3ec8c8abU, 0x3e2f1cd33eafa9faU,
  0xbe93d3fd3d2f5d60U, 0xbdb63df43d944e99U, 0x3c8b8cbb3e3b5840U, 0x3eba602e3e611522U,
  0x3eaeed9e3e9fea01U, 0xbe3899d83f04ba01U, 0xbe9847a5bf3400efU, 0x3d55610b3e869cd0U,
  0x3f04e6fd3e8cd1f9U, 0x3e4f93fa3eda52c0U, 0x3eb98fb5be54f882U, 0x3e3ecb5b3e195bcbU,
  0x3e24f3a93e4a58fcU, 0x3edb58273edab106U, 0x3effe9ddbbdb925bU, 0x3e6c6cae3f098040U,
  0x3ef574e93ec76229U, 0x3edd478a3c7999afU, 0xbefa1a3abd898081U, 0xbdd742593e916627U,
  0x3e677bb03e4eb456U, 0x3ea4fe9b3eea5bb4U, 0x3e912c533d0ead58U, 0x3e225ead3e335c0bU,
  0x3f3e89d53ef0e527U, 0xbefc7f81bdea1595U, 0xbe90ee05be63036bU, 0xbe92f37ebe538982U,
  0xbb8e5e33bc453cd5U, 0xbb652e6d3d9b3b99U, 0x3c56876c3b141281U, 0x3d6225a0bb4ace57U,
  0xbc9633acbe10098aU, 0x3c5e04083d2d780fU, 0xbe010eccbd91948bU, 0xbd0888c4bcd72deeU,
  0x3e609bed3ced7ff1U, 0x3e03a669bd8f522eU, 0x3dbaa5a23e5a3da0U, 0xbeb48a7c3e32105bU,
  0xbc31ef323e1f6479U, 0xbb5e74773e1f0562U, 0x3dbc2ae43e1ff5eaU, 0xbc4331cb3e07d937U,
  0x3e725d05bd6e306fU, 0x3e14dc023dbd174aU, 0x3e0dbb103e6355c5U, 0xbeaa45a13e17faa4U,
  0x3c8797133dee0486U, 0xbe3d6888bca8c866U, 0x3d8a6b7c3cf352a8U, 0xbe9ebe9d3d8aa246U,
  0xbde2ac0abe31566bU, 0xbed0e00cbe8d8e14U, 0x3d9c2d7ebca2e6f6U, 0xbe95230d3d48e979U,
  0x3e002637be826e2dU, 0xbebd6592bec108ffU, 0xbd519b63bdad9227U, 0x3ea47580bd92bb50U,
  0xbe1aa43cbe0d7859U, 0xbede4448be68c59dU, 0x3d235eb9be1981e5U, 0x3e78b4903cfacfd1U,
  0x3d697c2abdbf63e3U, 0xbd81b9f9bdc5a285U, 0x3d44266abd988d8bU, 0xbe8f38f3be5b6493U,
  0xbdaa689e3cd24b54U, 0x3e90cabd3d76585dU, 0xbe09ac0c3e3379c2U, 0xbdc4fe213dbccaaeU,
  0xbec1ea0dbea1ac32U, 0xbcafe3febe8045fdU, 0xbebc6b35be92d5a6U, 0x3e2d7471be79a884U,
  0xbde3b0b1bd5f91b9U, 0xba8687ec3d5015c3U, 0xbdff91633dcbebdcU, 0x3e5899073d646121U,
  0x3e0a33923de9cfa6U, 0x3e15a34a3e0b44c2U, 0x3d77b7e23ddcbf51U, 0xbe5a0ed43e85cc3fU,
  0xbe04c54a3c1c377aU, 0xbcaea4c93ddbc495U, 0xba0834a13cac7261U, 0xbdec3d6a3e6b79cfU,
  0xbe3de9c0be60eb35U, 0xbe6b1979be7a03ebU, 0xbdb115e8bdcaa20aU, 0xbacccbd5bde2083bU,
  0x3ccc4deb3e77b1acU, 0xbe5da04ebd4666eaU, 0xbdd2cedebdc9e50aU, 0x3d0074523e34232eU,
  0x3e1412fc3ceee51fU, 0x3db091f63e0d9707U, 0x3e81386b3ea16a15U, 0xbed61d7f3e25bdceU,
  0xbdd2034cbe132143U, 0x3da97953be11400fU, 0xbdd02200bde54f22U, 0xbe06263fbd92c41fU,
  0x3da3430b3e1239cdU, 0x3cec098c3e4fee07U, 0x3ebde9e93dbf7f79U, 0xbecc29943e257b2cU,
  0xbc5508babebccdc3U, 0xbed1546fbe464872U, 0xbc813fb6bea826bdU, 0xbe8a2b93beaa2a41U,
  0xbe8c44223da2abd0U, 0x3e496d933e3159abU, 0xbe7b1f8fbe49e8ebU, 0xbee2bf47be8549dbU,
  0x3de47d0fbe83499fU, 0xbedf9c77beddcc55U, 0x3ebcefee3cbb8d05U, 0x3c1433dc3cca9b18U,
  0xbeccd12dbdd950d1U, 0xbdb774273ca27f3fU, 0xbe6a8bf2be8a8782U, 0xbe201aa8be2af024U,
  0x3de72c203c0a3c1dU, 0x3e6cb90f3e2e7af0U, 0xbce7152d3d905c01U, 0xbe1dd7e53e1219cbU,
  0xbeff68e1bdd4eb30U, 0xbc1cd48abc1912b7U, 0xbea96845bd01a0deU, 0xbd61ae77beb5d680U,
  0x3e1d8594be004bf7U, 0x3e093f643e3e3f46U, 0xbd3fb1bc3e5f55e7U, 0xbe3df8abbba339aaU,
  0x3e613759bc5a70edU, 0xbb8762e3bd2c00a8U, 0xbc20533f3e29340dU, 0x3e2ccc6abe09e6aeU,
  0xbe1453d8bd5b626cU, 0xbe6d935cbea0f13fU, 0x3d6f18753d406d26U, 0x3e68e4c3be9edccfU,
  0xbd0222c6bc2a2cd3U, 0xbe8b89e5be6cbcb4U, 0xbde93774be806bd6U, 0x3e64c303bdd9dd65U,
  0x3dac6847be39a174U, 0xbe18ccc1bea0d634U, 0x3e69e85c3d5874c7U, 0x3e9ffd73bdd07ac1U,
  0xbca25f26bd4ab5e8U, 0x3ee4e79fbc5fea46U, 0xbe0132c9bdb4aa81U, 0xbef9febf3e0993ffU,
  0xbe24384ebdbcd380U, 0x3e970d65bb1dce48U, 0xbe7f734b3e1c3e26U, 0x3e118a003d540107U,
  0xbdbcec0ebe8571bfU, 0xbe073115bd78ea57U, 0xbe396779be88a23eU, 0x3e2a4fc7be849b64U,
  0x3d43d5433e1d6aa3U, 0xbda57f773d4c8d55U, 0x3ccfb2d83e048d81U, 0x3e9b9f873e43419eU,
  0x3e3d49793e4d62dcU, 0x3d7bcba33e35db27U, 0x3d63fccebde9da2cU, 0x3e91bed33d8eeac1U,
  0x3b707314bd3e2647U, 0x3e82caf53e68f57eU, 0x3de6258dbc01dc1dU, 0xbde697603d5f278dU,
  0xbdb2ce58bd3a99cbU, 0xbe21c5abbd9d3646U, 0xbe7edb78bb80050cU, 0xbe35b920bd4311dfU,
  0x3e82290c3e991cd0U, 0xbd24fd0c3e4d7e4eU, 0x3b4b476b3db933f5U, 0xbf332e083e6904e7U,
  0x3e40dccabd65479fU, 0xbe8a5201bda1e164U, 0x3e5598f83e292380U, 0xbf060eb6b90a874aU,
  0xbe495dc93d3854a5U, 0xbe289dc4bdfb1a89U, 0xbedba690be59c3ddU, 0xbe3d8c903d4a1898U,
  0xbd299b393e7fd6f3U, 0xbe0898c13ca80e5eU, 0x3d41bdfb3e68046fU, 0xbf2157ec3e638718U,
  0xbdfb542e3daee274U, 0xbd26d5e2be45ab0bU, 0x3e2797b63d95b124U, 0xbf63f073bdea0bcbU,
  0xbc90d9193da54e2bU, 0xbe7548a9be38f275U, 0xbea7ffbbbe40ea36U, 0xbeebc1733d08827aU,
  0x3d2286b83e5babc3U, 0xbe968a7a3e1a627cU, 0xbdf0991b3e5e0c05U, 0xbebe0bea3e3caf39U,
  0x3dceb7223c2c053eU, 0x3d670a7cbe05b297U, 0x3d905dde3db18c02U, 0xbec069b5bc11642cU,
  0xbd82782f3dacec61U, 0x3ea988843c123b92U, 0xbd96d52d3e4490deU, 0xbd634b5a3e2457c5U,
  0xbe042d633dec0d70U, 0x3e96524ebdd14313U, 0xbe7267fabd82794cU, 0xbeba4d9f3ccb4309U,
  0x3cd8d2de3d57ea4fU, 0x3e4e809bbe1283cdU, 0xbe36cf71bdfef9d0U, 0xbe9365a5be042112U,
  0x3e0a3fb53e6b96ceU, 0x3d9df072bd72b2e8U, 0x39e7f680bde4065dU, 0x3e08c518bc1d90fcU,
  0x3e2babfd3e812569U, 0x3e4b03f33e21280fU, 0x3e32befe3e2c235dU, 0x3e3377303d30f800U,
  0xbd9236fd3d5f3a2cU, 0x3d8668a43e02e48eU, 0xbd8a6be23d762878U, 0xbc7195513bc90fe2U,
  0xbd93e435be133f2dU, 0xbe5187ccbeb5013bU, 0xbe6e33f9be53e4a3U, 0x3e86be8ebe007739U,
  0xbd00f48abdc79fddU, 0xbe5f3ffdbdddb37aU, 0x3c7102adbdf69dccU, 0x3ed8ac8bbdb1aac6U,
  0x3dde71563ded7504U, 0x3cd27537be255c79U, 0x3deba15c3cab9d1aU, 0x3e981929bc497427U,
  0xbcbebc5f3d85afa5U, 0x3d2063a63dde03b2U, 0xbe69dfd83d866526U, 0xbe5d45063d8ac68dU,
  0x3d58325a3e0f13b0U, 0x3e0523d3bddc1418U, 0x3dac7a733e25362cU, 0x3da30ceb3df89e84U,
  0xbbd58592be069938U, 0x3df695fb3de41924U, 0x3da990653e0c7916U, 0x3d0a6ff0bc1b432fU,
  0x3e2ee804bdc72f36U, 0xbd38f9b13de217b4U, 0x3e7212933e180420U, 0xbf2ddbd13dc53890U,
  0xbcd877d93c94a5eaU, 0xbe49d134be57a002U, 0x3d44ee8bbd7bff8cU, 0xbe14d950bdad2608U,
  0xbe2f07debd2c54caU, 0xba2ecb1c3c6984c0U, 0xbe4771623de8ce7fU, 0xbdad72973cef8d83U,
  0x3e3f0245bdb0b6e9U, 0xbd0f4c273d8a2d5aU, 0x3e502f9d3d907722U, 0xbf226a1fbddfcdfbU,
  0xbe11c16abe078ca0U, 0x3deff51abe7f9395U, 0xbe107dc83c00d326U, 0x3dc8e6abbe25c1b5U,
  0xbcee365b3ca1b2ffU, 0x3dd116d4be03c3e3U, 0xbddd9d24bde2f710U, 0x3eae3f893d9ab84dU,
  0xbd02cf6bbdae4f49U, 0xbe940c10bda25d9cU, 0x3e0328cbbe3d54caU, 0x3e58f524bddba257U,
  0xbe827ceebe2ded2aU, 0x3de8e699bdb58d39U, 0xbe24a905bdc6f18eU, 0xbe9187603d53c8daU,
  0xba802e503dc8b590U, 0x3db3b56c3e27b52dU, 0x3d7d63243dfe2301U, 0xbf0da6d13e382b95U,
  0xbe629273bcae3e82U, 0xbe567bddbd3437a2U, 0xbecfd190bdb54cc1U, 0xbe539b64be5703d5U,
  0x3e8ab4aa3e181b47U, 0x3e8b571a3e39f3f8U, 0x3e841d543e06193eU, 0xbf482f9f3e0656b1U,
  0x3e42bb393cd3ee81U, 0x3db241d6bda35b08U, 0x3db090b13e219422U, 0xbd5c9dfabe05cdebU,
  0x3df7b836bc893c3cU, 0x3db837133e213d8fU, 0xbcea13903e4442cdU, 0xbe956280bdd31e8dU,
  0x3e13c5b93ba2da25U, 0xbd00d45cbd486ff0U, 0x3dfbbaa73e785d86U, 0xbd84a6d2bc8d83c8U,
  0xbe28a4fcbdecdfb8U, 0xbe865e64be953125U, 0xbddda60cbd32a731U, 0xbe8f039fbe481c42U,
  0x3e122f9ebd3c2d61U, 0x3e71a1293e436099U, 0x3c179f81bca26e83U, 0x3eab8d7c3e26416dU,
  0x3deae1973e5b5c7dU, 0x3e9be9c9bd810f4fU, 0xbe04c1c93d519013U, 0x3e2b03543e17ade4U,
  0xbda5444ebdf55b03U, 0x3e9471803dc376d3U, 0x3d912b56bd1f6b3cU, 0x3c2089f5be2bf37dU,
  0xbdffa98cbdfab0a2U, 0xbe27abbabe9f870cU, 0xbd086593bdf5f679U, 0x3de58737be1c2e18U,
  0x3e1a4925be2421ffU, 0xbd812f5e3c2da0a4U, 0x3e346fcabdc15aa5U, 0x3ea8a8e4bdf87159U,
  0x3d7466783b8972aaU, 0x3c3f2d173e3faddcU, 0xbdfdea8cbd9556a1U, 0x3d122a653d923767U,
  0xbca8853b3dc5a03fU, 0x3ec15708bd9c46eaU, 0xbddabc993e2b4e4dU, 0xbe4052213df5431dU,
  0x3d7261253c563684U, 0x3e7caf6fbdd83954U, 0xbe133fd03e020529U, 0x3e0820aabe0084fdU,
  0xbd10fcf9bcdb22b0U, 0xbe792b3bbe20eb4dU, 0xbcda34073dc77494U, 0x3e8bf241bba7c0aaU,
  0xbe80c9733d7f68deU, 0x3dfb4a16bd75da20U, 0xbdd31281bc544f7cU, 0x3e9e5c34be2cf643U,
  0xbc163e67be3f6194U, 0xbcdba3d83d688922U, 0xbea087733d6a6c49U, 0xbe324a0ebe28143fU,
  0xbda2363a3e59b18eU, 0x3c2ec4063e1e3fedU, 0xbe6ca19a3dcb9e1fU, 0xbf08e89b3e1cfa40U,
  0xbd22de9ebde5b371U, 0xbd8a1e743e0413f5U, 0x3dbc62de3e22d550U, 0xbe93f5c93cb9b185U,
  0x3d85a9cdbcbf1d60U, 0xbd95de98bd7a241eU, 0xbdebec0d3d09e603U, 0xbf0360d4bdac18b5U,
  0x3e7ef5113e713484U, 0x3cb2224d3e6526aeU, 0x3dba9a6c3e8f84daU, 0xbf29fc4b3e53c4dbU,
  0x3d90a498bde6ab30U, 0xbe7ccabebe7c616dU, 0xbdf2e16fbc4c6aadU, 0xbd4af3aabd30e28cU,
  0xbe253a31be013c07U, 0xbe677f5abd243391U, 0x3d5552d0bcabe1edU, 0xbe0059f3bd44e4faU,
  0x3d5812413962db01U, 0xbe00904a3d9b0b0bU, 0x3c8433d13e40391aU, 0xbf0654f33d21b14dU,
  0x3de1db783e4a2f50U, 0xbe4311c2bd810c52U, 0x3e578a4c3e695ae1U, 0xbecd035b3d835a77U,
  0xbc7d1647bd743a58U, 0xbdd5a2c63dfcb5b2U, 0xbbdd11543c132aa7U, 0xbe8f50b23d94d041U,
  0xbe8a3228be0d0eb4U, 0xbe7a9247be0b7f8cU, 0xbe4f2389be25ffe5U, 0xbe229bfcbe0020f0U,
  0x3e2f9a403df243dfU, 0xbdecd24c3de07b92U, 0x3d8627903e396ea3U, 0xbf0a6f863cafe8abU,
  0x3dbd053ebde4d5b7U, 0xbdb8404ebe853450U, 0x3eac8f66bc960e13U, 0xbe8cd58abde33046U,
  0xbdee60dc3dc47920U, 0xbe2c23e33e27b8c6U, 0xbec013e1bd9b11caU, 0xbdf119063d80f52fU,
  0x3bb612e93c69d340U, 0xbde814213dbeaa5dU, 0x3e2bd9cf3ddb7f83U, 0xbec37a3ebd077c27U,
  0xbd0ab919be3a2e83U, 0xbd7e30a0be6df612U, 0xbd1bedc5be519c99U, 0xbe888994be441e79U,
  0xbe2031353dbf9a02U, 0xbd91a1783e820733U, 0xbd0cca443d24a9ffU, 0xbea33c3e3e28d446U,
  0xbd7121353bcb44bfU, 0xbdffb1dbbc39c4adU, 0x3c09a198bd8ea933U, 0x3dc185a23e2cf7f7U,
  0x3e17982b3e7e264dU, 0x3e1b49773dd0da6fU, 0xbd91e4ed3e3dd3aeU, 0xbec3a73d3e0bf84dU,
  0xbdb7c92cbe589325U, 0x3e9d87003d09a5f2U, 0xbdee4a3abde51a69U, 0xbec0f6d6bdee52edU,
  0xbe015d33bde29f8cU, 0xbee3ea22be302967U, 0xbdb7f06ebddf6a10U, 0x3e9eef7fbdaeeb48U,
  0x3e5272c43dcc735cU, 0x3ae6bea3bd833051U, 0x3e66aebf3dcae5a7U, 0x3d55644c3e2185a4U,
  0xbd6c9dfb3e0f1136U, 0x3e600eb33e1ef744U, 0xbe030e633d6b0dc6U, 0xbdedef593e89f860U,
  0xbeb5e9abbe55318bU, 0xbdfdd344bce6ddc7U, 0xbed19f9d3b86b0c0U, 0xbd47293bbeabf79bU,
  0xbda54476bced9511U, 0xbecfc6e1bea67b62U, 0x3b89b6b4be7b7bcdU, 0x3e67904fbe362bc7U,
  0x3e636c6b3dc249f4U, 0xbe898d39be7e7959U, 0x3d72cc01be515805U, 0x3f1998adbd2a3aa9U,
  0xbbb9d01b3e134c19U, 0x3c9973f33d5c4ca2U, 0x3dd8f12c3e245c20U, 0x3d956c4a3d9c65ecU,
  0x3e120df83d994118U, 0x3e86e4a53e7a87d5U, 0x3c272f843e01cdd1U, 0xbec0adb33e34563eU,
  0x3e13f5583e5d3c8eU, 0x3d9f1dc93e3c020eU, 0x3dfab34c3d346097U, 0x3df4c9903e929f59U,
  0xbd3917a6be62fe3bU, 0xbe85037fbe3a5678U, 0xbe4c4347be96fd21U, 0x3e60e583be12a17aU,
  0xbcb4f28bbe283b5dU, 0xbea2e319be447674U, 0x3d173e3fbdeb2fc1U, 0x3acda5b43e2a9112U,
  0xbdaee66cbc1c7e51U, 0xbeefc309bec7e394U, 0x3db7a9e7be272b26U, 0xbc8c25dabeae5820U,
  0xbea4beb7be63d768U, 0xbdbfb3fb3c426bf5U, 0xbe888d3fbe2ee48cU, 0x3ec80c41bd26ee35U,
  0xbdf1a3b5bd94f754U, 0x3e8b3dafbceb4c74U, 0xbebc0021bd7b248fU, 0x3e901b68bd8a7347U,
  0xbdbce83cbc061187U, 0x3e88535b3dc16c52U, 0xbec9cd4e3d83da9cU, 0xbedfb17fbe0b95feU,
  0xbc5620bebe80cda7U, 0xbe62b457bc39f420U, 0x3d71a821be5c2db2U, 0x3df1782ebdc3570fU,
  0xbea5a3c4be1e18ecU, 0x3dab55f63d101d70U, 0xbe354624be90a4c0U, 0x3de9e406bd816090U,
  0xbe29556fbe0c3163U, 0xbda1fe8bbdd50ae1U, 0xbe79e4a53dba3a23U, 0xbb34e5ecbdd8fcabU,
  0x3e0983d6bcaf5a46U, 0x3ec2bcbc3dcd4871U, 0xbdace78e3e5a6e44U, 0xbda4c2f33e559f19U,
  0x3dcac5163e052802U, 0x3e6edb2e3e5f9a42U, 0x3dab67e43df5fc78U, 0x3cdb846d3e2c1a92U,
  0x3dc0c1313d0995e6U, 0x3e18716f3d91a572U, 0x3c4f5beb3dc915d8U, 0x3ce205033e03ca72U,
  0x3d531051bce1343fU, 0xbe8bf239be694defU, 0x3d636313bd9fe539U, 0x3f0820dcbda0765aU,
  0x3db496cabdc71c81U, 0xbe2fd272be2dbaa6U, 0xbe01e381be1f2cf0U, 0x3eb9d9a3be222babU,
  0x3d81a39fbe27aa35U, 0xbe6b03aabcd4150dU, 0xbcda4e863d07b2feU, 0x3e988ee73ddd0c3eU,
  0xbd92a524be652253U, 0xbcce388c3d559535U, 0xbda2dae4bd28a365U, 0x3dfa784cbe5b94beU,
  0xbd8a60103e1ef92dU, 0x3e123d10bd4ea586U, 0xbe0632c93da8578aU, 0xbd637d56ba5aea00U,
  0x3d504b1a3e115a85U, 0xbc8d4f2b3c53cbfaU, 0x3dd09aeebdac7456U, 0xbe5a6f81bd9b74f2U,
  0xbd1381703daa4956U, 0x3dd215c13e789dacU, 0x3d48de903dd7c222U, 0xbea8e2db3d9fa8abU,
  0x3e0657b33d25a413U, 0x3d4437fb3d05c797U, 0x3df66f6f3e7e2bfbU, 0xbd8c34a03c8bc00cU,
  0x3e85ee963df90addU, 0xbe770001be2e5f0fU, 0x3e045df33e30db58U, 0xbca8688c3e3d7630U,
  0x3e2358ca3dae7fd4U, 0xbdb4156abeb12698U, 0x3d948e29be3b3323U, 0x3ebddadbbd1a329aU,
  0xbe017fcebdcbb2b1U, 0xbea929a7beb03f55U, 0x3e4bc11ebe5b007cU, 0x3e9d6950be3866adU,
  0xbe0c5b56be692e5eU, 0x3df2579dbdce6c29U, 0xbe57eca5bdd21e44U, 0x3d5767d9be3192ddU,
  0x3d98bbb4bc4510c6U, 0xbcdfda3c3c21e967U, 0x3dae8107bcb18adbU, 0x3e18f2a83e06bffaU,
  0x3e197d233d14a20cU, 0xbd818d50be8f58b2U, 0x3ea913d9bdbdd864U, 0x3d0b81f83e091935U,
  0xbdd207623d244da8U, 0xbda965f1be1bf3b5U, 0xbd46dc2fbe2e70b8U, 0x3e41e654bdb68af7U,
  0xbe9f7087be8edc1eU, 0xbdf61dbebe78d859U, 0xbe78e671beb4e055U, 0x3e973e89bec506abU,
  0xbe80f631bdd6ea13U, 0x3e1a537c3d04f648U, 0xbe8ca5dbbdeda7a7U, 0xbde576803c1620b2U,
  0x3dde5f85bdbc73d7U, 0x3eb64d253e0f29dcU, 0x3d1ab0233d8d97c3U, 0xbe0141f03d8d1e74U,
  0x3e2d20703e0ecae9U, 0x3ea76d283e16cc8fU, 0x3d04909c3e907bc7U, 0xbe8254ec3c0bee05U,
  0x3e80fa633dd9d78bU, 0x3dbf8e3a38f9b850U, 0x3cbf0927bb8976cfU, 0xbe63f73cbda2e314U,
  0x3e28af83be064be2U, 0xbdd71cbcbde4ec83U, 0x3e13b97bbd189b3dU, 0x3e38a638be3fa047U,
  0x3cbb82a7bc936413U, 0xbda85b6a3d94c4dcU, 0xbe04fbdbbc2aa759U, 0xbdef9ea0be4d7ab2U,
  0xbcfdb5f8be310064U, 0xbd24da2d3c525b32U, 0xbde378dabd6be427U, 0xbd379121bd9b4832U,
  0x3ddbf6a9bcfde82eU, 0x3dfb49ba3d92330bU, 0x3dd446aebc88c308U, 0xbd4cd2c3bd3d390cU,
  0x3d0c36ed3b6f38a0U, 0xbd7dd574bc6c6f89U, 0x3d36cda5bdd652c0U, 0xbdd2e0c03d5c8023U,
  0x3e02f9a3bdf3aefaU, 0x3e2f19fbbbb238e7U, 0x3c9b65e4bd3a863cU, 0xbd8468743c03281cU,
  0x3d9897d53c968793U, 0x3b088ef23e0d8a73U, 0x3da73d773e05a45aU, 0x3c951ee1bbed2e6cU,
  0x3e3cc919bd3a54dfU, 0x3e0becc4bd9693b4U, 0x3c9b53ab3d00a81eU, 0xbcf0c8a3bd8941d3U,
  0xbe01b4bb3dc5256dU, 0x3e3331febe35378aU, 0x3dbc4a82bd139db6U, 0x3df202cebd922b9eU,
  0x3cdd59febe51e403U, 0x3b8e28a7be0aabedU, 0x3dad9915be393b08U, 0xbd764747bd3b73feU,
  0xbe1c9cb53e06ff0fU, 0x3dd15bcebe39ac1dU, 0x3d5aa01fbdd3499eU, 0xbcdf2f1cbd7dd29cU,
  0xbe43580ebea34ce4U, 0xbd86f37fbe00279fU, 0xbdade3d4bdd79b1cU, 0xbdd99027be160be2U,
  0xbd93c01abb8e745bU, 0xbdbf6e06bdf6781dU, 0xbe2a263cbd3409b4U, 0xbdfbf062be309260U,
  0xbd65bab3bd582da0U, 0xbdf6bee8bdbc2596U, 0xbe0c0bb3bdc775edU, 0xbd6a61e93d01d349U,
  0xbd1b1175bdcd9b7bU, 0x3c3a3c933d6dd2d2U, 0xbd7f75fdbd98ae05U, 0x3d6099aebdf93000U,
  0xbd83c0983d9e84f7U, 0xbc034cbbbe03b7ffU, 0x3d8dcfb53cc297deU, 0xbd0dd9e0bdaa7124U,
  0xbda0701abd5dd411U, 0xbcbfa1803c44addbU, 0x3c460e73bda1cc12U, 0xbe1dd6773d970c35U,
  0xbd15e9bb3e0d9a3aU, 0x3deb570a3db18502U, 0x3e098983be3e4fe7U, 0x3d449cd6be0a3681U,
  0x3c1df2b8bd127ac5U, 0x3bb95b3c3df43f2bU, 0x3d8822403e1c7f91U, 0x3d63364c3db8d89fU,
  0x3d3df0a23db27fc2U, 0x3c9336df3d051a4cU, 0x3d88cc62bdb1595fU, 0x3d18c626bd8f379cU,
  0x3d32a2893df6d2a7U, 0x3dee929cbd72c0d2U, 0xbc22ecaa3e00bb61U, 0x3dfa86a63d64c08dU,
  0x3d99d8923d8e9755U, 0x3b4df73ebe14b43aU, 0xbcc385abbd8f2f2fU, 0x3b6ea0963ca3de4dU,
  0x3cf9e29c3d10c79fU, 0xbd7dc87bbe0f3a10U, 0xbbb2903b3b9b0c43U, 0xbc402df03def3c2fU,
  0x3e58860cbe3c9254U, 0x3cfe6170be447321U, 0xbd0a7f73be204ad5U, 0xbe0ce8a7bcc11354U,
  0xbda79d6d3d78cbd4U, 0x3dc1d27ebdc07c25U, 0xbd33a9f7be20aab3U, 0xbe0f09c6be82eb8bU,
  0x3c815506be026089U, 0xbc5d7a1ebd8d7d6dU, 0xbdfac1debdb2802aU, 0xbd9227f13d5a27a6U,
  0xbd8cdf6fbd488897U, 0xbde779513d7d2c9cU, 0xbe598aafbe30609fU, 0x3d5e3998bdc24889U,
  0xbdf06495bd728bd9U, 0xbe723db23e193c47U, 0xbdec4c54bc6ec743U, 0xbe87f6dfbd4104b6U,
  0x3cec5c4fbde485d7U, 0xbe09ad5ebe184e11U, 0xbe656a87be6f7a59U, 0xbdc72159bd2d0374U,
  0xbe14ac3abdde6d41U, 0xbdfadeb83b6451efU, 0x3d0531e73d69d0c9U, 0xbe0ecf9abd9151edU,
  0x3d83f34d3c978fddU, 0xbdb1065bbe82a341U, 0xbe87de1d3c76d833U, 0xbe2865e4be296715U,
  0x3e553412bb8245d7U, 0x3e17861d3daa45e1U, 0x3e1fb1c5bdd48cf6U, 0x3d11a769bdc4ab77U,
  0x3dd8cd85bd50e24aU, 0x3da4d8033dbb1ab6U, 0x3dc2c6b93ddcd9c3U, 0x3d25612f3e2e9d00U,
  0xbadb818d3d7ee92cU, 0x3c1ff5d0bcadb4b8U, 0x3c1b41dfbd398216U, 0x3da542a33e06f499U,
  0x3d82d6663dd87425U, 0xbc8cd66f3c73175cU, 0x3cf7deb33e0a9258U, 0x3db9726c3c83d0a7U,
  0xbe6d2ca3bc0612edU, 0xbe819a643a90b596U, 0xbd910eafbc1e7949U, 0x3cb707eb3d16d306U,
  0x3b98066c3daade1fU, 0x3ccba48a3d9c00bfU, 0xbe1db2a93cf2b306U, 0xbc31d9ccbdd79ddbU,
  0x3e4b0204be0435f9U, 0xbd95fababbb08a1eU, 0x3c73f91c3dcc4c8eU, 0x3d6b03c13c1fe46cU,
  0x3d9ab566bd8daae7U, 0x3de832b73d368647U, 0x3cf50570be0aac1eU, 0xbe18b99cbd4887d4U,
  0x3d5772003cd5bf03U, 0x3e4a6370bdd173e4U, 0xbd1ed1d03d117e01U, 0xbde833373da27dedU,
  0xbe44a6cabe0a5279U, 0x3c6237b33e03be85U, 0xbda69bc2bdd75d3bU, 0xbe5dc387bde38378U,
  0xbdcbde20be248d21U, 0x3daf8ba5bcc85e5eU, 0xbe82fc69bdda41eeU, 0xbdc14388bd079e61U,
  0x3dd76efebe7bda4bU, 0x3d33e8e0bdc2cc7fU, 0xbd746dcebe2da845U, 0xbc6d55e6be43e961U,
  0x3d506b53bd907346U, 0xbd56c615bc959650U, 0x3c8ee9b73d41328fU, 0x3dcf8151bc0312deU,
  0x3d96cdc9bd8f8879U, 0x3daf73003bd5f9a5U, 0xbdb09837bde4b35fU, 0x3d527dc33dea2881U,
  0x3cfb2d323e0f75c8U, 0x3c15ff44bde60a73U, 0xbd2f58b9bbae0e4aU, 0x3e091d6bbe0cc7e1U,
  0x3d0cfb28be090021U, 0x3c4e4df63d0bf643U, 0x3d535cb53ded4d92U, 0xbe0770563e09fec5U,
  0x3bd35be13e0d88d3U, 0x3bdb2080bd85f3a2U, 0xbdb3c2923c8933b0U, 0xbc1ec02f3c525f12U,
  0xbd113cc63d58fb50U, 0x3bfdb2363e3549d3U, 0xbcae286d3c32cd58U, 0x3d86ba9c3cd8b30eU,
  0xbe6fddc23bf18db3U, 0xbdf8bcc93e1d59caU, 0xbd6f58733ccbae8bU, 0x3e80be163d7914e2U,
  0x3e154bb6be1d76ceU, 0x3c7d55043ddd5254U, 0xbe0749e0bc5945e3U, 0xbd98668a3dda0bcbU,
  0xbd98e0c73e4665e7U, 0xbe2db5633e285856U, 0xbc70079b3d2464bdU, 0x3dd7a6163ddb2372U,
  0x3dd75225bd5762efU, 0xbdd4e96e3da8fe17U, 0x3dd917613d9fdb82U, 0xbc7c032b3dcef16cU,
  0x3da08e27bcc62092U, 0xbcd7a9243e0a3d3bU, 0x3cee152c3d89d2e6U, 0xbdcaaf46bd547e6dU,
  0xbd817599bd0e4d26U, 0xbe08086e3dc4566bU, 0x3d52513e3d5ee748U, 0xbdca8e983dbf954aU,
  0x3d83efb7be52364cU, 0x3dc5778a3d497d84U, 0x3da02ec8bd5dbd2fU, 0x3cf1fbb0bdf24430U,
  0x3dbd8ad1bda4a083U, 0xbc47bd0dbd1efb3aU, 0x3dfd00babdc5ed9bU, 0xbd47bb5d3ce5cb79U,
  0x3df7439b3d813297U, 0x3e362b3fbc05633eU, 0xbbf0ce2e3df00cfeU, 0x3e1c9af1bcafcfd8U,
  0xbd8e95fa3da23643U, 0xbd2a7d82bde1704dU, 0x3dc781ce3d923e5bU, 0x3d17bf173d920706U,
  0x3d0319e1be182642U, 0xbdee19a2be044235U, 0xbe18ac67be056b94U, 0xb9711a5abd1883afU,
  0x3d8d73babcff1f12U, 0xbc502135bdf2cd93U, 0xbdee98acbde71262U, 0xbcd3d6b13b96add5U,
  0xbcf4825fbda4f9a6U, 0x3bf35efa3d9f0048U, 0xbdd9cd2abc38ba2dU, 0xbdca376dbe0a3cc7U,
  0x3d6bcf89bd42ce9eU, 0xbd5bde7b3e480f0dU, 0xbe2c481fbe882f0aU, 0xbe4c156dbe1fdaf6U,
  0xbdac90ccbda5a73dU, 0xbd9f38023e70e549U, 0xbe0c9b123dae4e7cU, 0x3e075875bd0ba692U,
  0x3ce4f1a7be6b3b24U, 0x3dc5dd0a3dfec579U, 0xbe0ead5fbbc3f2c8U, 0x3c1ef046bdfe25b8U,
  0xbc903c60bc702f20U, 0xbc56fd183c550ae3U, 0xbe032630bc843fb0U, 0x3db51c063db1526aU,
  0xbd986eb0bdd62651U, 0xbd542483bc3d5d95U, 0xbdca606cbd4186faU, 0x3d8b6a103da6e5f4U,
  0xbad2eaa13d81f4cdU, 0x3de46c423d94d089U, 0x3bc1e1c63d9bb261U, 0x3e1f9316bcb165b2U,
  0x3cfa8505bd070198U, 0xbd6e4b21bde5c8acU, 0xbb597bff3df87601U, 0x3db27aa73dddc206U,
  0x3d00010a3d0f95d5U, 0xbcf3bd103b3be5b9U, 0x3d7348a4bd1b4043U, 0x3e0beab3bd1f9561U,
  0xbca90e4f3d2274faU, 0x3dc44143bca2b5c0U, 0x3d391b303e1ab798U, 0x3d9e44be3d159ac3U,
  0x3e3d7acc3dea8d3aU, 0x3d866dc23e1c34dcU, 0xbc3aea2bbdb7be7bU, 0xbe047e3c3db5aac3U,
  0xbe41942a3e127764U, 0xbddbef183d9e8df9U, 0xbd503d413d08a555U, 0xbdd2421a3c2fabefU,
  0xb9c07476be2a1d3aU, 0xbe1c0513be199bd6U, 0xbda47f2fbd49c899U, 0xbcc3976cbda22cc3U,
  0xbe05045fbe1e0a2bU, 0xbdcc2ec0bdc2f27aU, 0xbda70915bdeebdc0U, 0xbe4f5539be56e80dU,
  0xbe433b4bbdc1e21eU, 0xbeb61d5dbd2500b8U, 0xbd74bee33d285446U, 0xbd3fb799bdf6a7fcU,
  0x3d1175603d4e3e83U, 0xbcfcd5dfbe4e11a0U, 0xbd3f4224bdcf81a2U, 0xbe87d532bd84c926U,
  0x3dc7a889bd250fdeU, 0x3e0df224bde72067U, 0x3c85c17d3dba48fbU, 0xbc1f1d84bda43cbdU,
  0xbb421474bdc50cddU, 0xb9ff00503d7002d1U, 0xbe0fbc1cbc5d1c74U, 0xbe3a899d3c337b00U,
  0xbdda46593d6adf5cU, 0x3dfc0d1d3cd0b8a4U, 0xbd9276d3be44df46U, 0x3c882f3a3d7dd542U,
  0xbdbd7fe73cc3a690U, 0x3d009177bdceb162U, 0xbc9c5a6c3bbbab39U, 0x3c2677073d92a229U,
  0xbdf50bdb3abc84deU, 0xbd0d480cbd802ae6U, 0x3c8c5ab0bdb45badU, 0x3d85bb423c701625U,
  0x3cc8c441bcbebe76U, 0x3d40b30fbe078d3bU, 0x3d1fe9f13cec019eU, 0x3d661acfbd9fe51eU,
  0xbdb01b6d3ae288f2U, 0x3d3b1a90bd0df521U, 0x3cd9af21bd40d7ecU, 0x3d6bd891bcd163f1U,
  0xbda3d8873d4fe004U, 0x3dba98a9bd42e732U, 0xbc79fe4f3d0143faU, 0xbd7e896a3dba8732U,
  0x3dfc643fbba4117eU, 0x3ddf77f53e255feaU, 0xbe245b71be2eba37U, 0x3df1f74c3c95174aU,
  0xbd5198e63daf7974U, 0x3cc38bfd3d6964aeU, 0xbd1991063d8f30dbU, 0x3d525af83c03783aU,
  0xbd0c39b3bdac9735U, 0xbd55a99dbe38b5d3U, 0xbdefb0ec3d95c591U, 0xbddb498ebd7d5396U,
  0x3c73454abe468f67U, 0xbd849500bd4ea52dU, 0xbd3601a8bde637edU, 0xbd49fcb4be410837U,
  0x3d65a96f3d11c947U, 0x3dd0285ebe428fdbU, 0xbdcb3ad3bdcd2401U, 0xbd35f6febd51bccdU,
  0xbe255dedbd88ec1eU, 0xbdaf6671bd968b89U, 0xbd8fcbe5bd5332d6U, 0xbd73313f3dba9eb8U,
  0xbcf1eaa63cea37d2U, 0x3d0a41dfbd7e0909U, 0xbe04810abd47640cU, 0xbc0fbcb23d2a479eU,
  0xbd4b5bb43db3a614U, 0x3e19a93cbe81bc8aU, 0x3ccae5a63d724453U, 0x3d1b079fbd402bf4U,
  0xbded447bbd92408aU, 0xbc45e9a73d574cb7U, 0xbc948632bd8a392cU, 0xbe248cfdbd8e3141U,
  0xbe1baae9392a4b0eU, 0x3c842ee0be026334U, 0xbc833272bca39827U, 0x3d176a0cbe0a6412U,
  0xbde57fcfbd876f42U, 0x3e051440bd953571U, 0xbc155a49be5bf23aU, 0xbced90413d1aff85U,
  0xbd33a9263cd18428U, 0xbdafba87be0900f9U, 0xbdf3cc18bdc87e84U, 0xbc86fc0f3d8167c9U,
  0xbe327d85be0dc2eaU, 0xbb96458bbdff295aU, 0xbe3b794c3df06667U, 0x3cd7b969bb3c7576U,
  0xbdf7622a3cebc76aU, 0x3c2876d9bbe1ac48U, 0xbd599891bd9e43f9U, 0x3c35111a3d5c2004U,
  0xbcd7fe8c3badf9e6U, 0x3c375a6a3d969357U, 0x3e5b79e63d53eceeU, 0x3d53385fbc88122eU,
  0x3d471c5f3e139db5U, 0x3e8c89ff3dcfe973U, 0xbdc5a8febd93ae6bU, 0xbd5a50c2be66fa92U,
  0xbd946f963d9bfa86U, 0x3afde170bd483898U, 0xbd782c05bd4b2f75U, 0x3b3e0148bde7ebd7U,
  0xbdc0edffbd6ca5edU, 0xbe0230d0bd0d2581U, 0xbdf5ee233c48b2fdU, 0xbe05dd31bdb71820U,
  0xbdc8e396bc6ce3a4U, 0x3c84c4163b1fff33U, 0x3cd9e88e3ce79719U, 0x3d27c13dbc6bc1dfU,
  0xbd156eb23bd3f496U, 0x3c484bca3d5dc4eeU, 0xbd5ae9713d7a212bU, 0xbddd741f3cb630b0U,
  0xbdd75296be20c28aU, 0xbcedc7bf3ca63da1U, 0xbd5bd037bd55877fU, 0xbdae38e23c3a4ad4U,
  0xbdc0668dbcd2e27aU, 0xbcb30170bd5f29dbU, 0x3d8ee3ef3da978a9U, 0x3cf0a0a1be773561U,
  0x3d2270ecbea32ba2U, 0x3d9ba2373dadd3afU, 0x3bb8d50fbcd867dfU, 0xbce1f8d2bdb0b969U,
  0x3cb9c3f93d10f0ecU, 0xbdce0535bda4d71eU, 0xbd13002ebe0735c1U, 0x3d64a1febdfe4241U,
  0x3dead937bdd4bda0U, 0xbb81273c3de2020fU, 0xbddc06ee3b154d78U, 0x3d276cbbbcba8a3eU,
  0xbe3021edbcc3e800U, 0xbc8d95653e2e58b2U, 0x3d5aba06bd95bd23U, 0xbd3da899ba7e1a1aU,
  0x3c13cec73d0890c8U, 0x3b7d07683e0f13a8U, 0xbde7f2e33c297096U, 0xbd73d4733d5b615cU,
  0x3d83e2bb3d779cfeU, 0xbe196a483d86cfbaU, 0x3cf95fa3bd5709baU, 0x3bb295abbd515660U,
  0xbcc31a39bd0844a9U, 0x3dc933ab3e34a9feU, 0xbdfbd2be3d252f3eU, 0x3d84095c3d3803f7U,
  0x3d5900923d56fba8U, 0xbd55e6083cb047dcU, 0x3d0a47abbc46166fU, 0x3d894786bce8d719U,
  0x3d3ee628bdb83c65U, 0x3ce61f5ebb4db621U, 0xbad2d4d1bcd25240U, 0xbdc8f4f53c7066e6U,
  0x3c9c105cbdc9cdccU, 0x3c21c1bcbd8c3946U, 0xbbc499b13d67212eU, 0x3cbe4964be510667U,
  0x3ce744253cdd8465U, 0xbcd5884cbd317e54U, 0xbdd1c34abc97b72fU, 0xbd004f583d363a48U,
  0x3d0959413c80c3c8U, 0xbd554ee43d2db193U, 0xbd9e28033c4dd8fdU, 0xbda05bd33d768657U,
  0x3d07d6cc3d22fec8U, 0xbc7c78573db823a9U, 0xba90d2f83ddeb8d0U, 0x3dbfdc513d74362dU,
  0xbb0d21893c8f0be1U, 0xbd0c84e83e259cf8U, 0x3cc7ce94bbf4f866U, 0x3c7aef51bdaa104dU,
  0xbc9f0db4bc27722fU, 0xbc774618bbc0d89fU, 0xbbb2787c3d908e6cU, 0x3da000a53e0bae78U,
  0x3c3a48f53da33aedU, 0xbcd413ce3dcb416dU, 0x3c7c32bbbd605c9cU, 0x3cb3ba183cbb997aU,
  0x3c8a8072bd673a8fU, 0xbce46c6c3d5777eaU, 0x3d337a9f3e092d61U, 0x3d91d68cbdaec9e5U,
  0x3c17c2733d0eb2edU, 0xbd9732053da42015U, 0xbd1258e3bd830733U, 0xbce453723c38c64dU,
  0x3ca15f373d805186U, 0x3dc560323daf37d3U, 0x3ce3f6d03e384377U, 0x3dc91d623d587c6fU,
  0x3e4160d43da4f512U, 0x3d109b1d3cf18f2bU, 0x3b9af1843dd3f43aU, 0x3c172652bc77d7c0U,
  0xbd81019f3e09604eU, 0xbbf855e93e3e057cU, 0x3d9624b93d68e10aU, 0x3e4b0f49bcb349efU,
  0x3d1f11e13dde8fbdU, 0x3e60bc4fbc139804U, 0xbc3740613dc713b3U, 0x3c637c083e18f461U,
  0xbde0066bbdb62a3cU, 0xbcb96033bd3d4b01U, 0xbdc8cf12bc650b92U, 0xbba9e429bd9908c4U,
  0x3c7c1f49bd7f51b5U, 0xbbb62b443d0b9883U, 0xbe010e18be14ac1eU, 0xbe0b110dbe1a0090U,
  0xbd4c3555beb6bd03U, 0xbd0788ae3d95efffU, 0xbdafe4d43d8be0f4U, 0xbd74cef6bd90dd13U,
  0x3b2432fa3cef7402U, 0xbd48c2efbd0ae7bdU, 0xbe048b15be758274U, 0xbb205605be4ea133U,
  0x3e7b7082be8a0b71U, 0x3b7e4ae2bdaa92f3U, 0x3b82b2af3d1e3c56U, 0xbc949850bce0d707U,
  0x3d345b683da229e6U, 0x3d065cf23d6f6b3bU, 0xbd95b6a7be7ee355U, 0xbc8e76d7bdf588b8U,
  0xbd3b7225bdcc31adU, 0x3c1f12b0bd74d3c5U, 0xbdf58ac83dd2b79eU, 0xbdd530b53d6746a9U,
  0xbc59ecf3bc0d7890U, 0xbdcee5d23d80e390U, 0xbd638365be18780dU, 0x3d882dcbbe2755b9U,
  0xbd61e961bd6ee50dU, 0xbddd88b93d9c3a1cU, 0xbdbd3e4f3da4bbc9U, 0x3d8114053d92c83cU,
  0x3ce342143d3a4606U, 0x3d5b40873c6e2163U, 0xbddc5a64bc8573e1U, 0x3d9816d7bd82bf6aU,
  0x3d199a46bcc446c6U, 0xbbdb91043e0b86d0U, 0xbd7ee8af3de82bc6U, 0x3d50a74b3d8a7bd2U,
  0x3dce8f183cd014fbU, 0xbe065c083c9494eeU, 0x3d9a999abb9a9206U, 0x3c5f5b303d748627U,
  0xbd73900b3d9dbdf3U, 0xbc936821bd27d102U, 0x3e1370353dcaf1e5U, 0x3da385c4bdb5d92fU,
  0xbca13ff43de4c098U, 0x3e7d2515bd661fc7U, 0x3e226e903e3e1221U, 0xbd63b5163dea977eU,
  0xbd116b25be10b07fU, 0x3e38e1103dc73147U, 0x3d8955abbc1f4392U, 0xbdbfbc263bb5fa19U,
  0xbd19af5c3d7b95d7U, 0x3d8ae14b3e5134a3U, 0xbd3e7d7bbd9ba6eaU, 0xbd80a0bd3d13ec07U,
  0xbde218fdbdc5ca9fU, 0x3e0b86a93df62f9cU, 0x3d69343d3b6403d4U, 0x3d3b4524bda461caU,
  0xbcb836b13dedfbf2U, 0x3d039720bd838a60U, 0x3bee7e88bd410d8eU, 0x3c1e05f03d8fc90cU,
  0xbd398518bdd9627dU, 0x3de50c74be24217cU, 0x3e0033103d1e6289U, 0x3d8963b93d5a98c8U,
  0xbd2eaa723ddf0d48U, 0x3dd17703be9893f7U, 0x3e1f2a103c9fe4f4U, 0x3d9cfe3a3da8cb6cU,
  0x3d91fc5f3a68a4d9U, 0x3e1581f7be6053deU, 0x3e091460bc88079bU, 0xbd5cfb983d8ce538U,
  0xbda863723d932ea9U, 0x3dd63554be03a243U, 0x3d9ffbfdbd7278b6U, 0xbcbf7d1e3d171e61U,
  0xbd0c8edb3dbdc4dbU, 0x3cce1b73bd12ba84U, 0xbd446f653dd62c68U, 0x3c98fee53def775eU,
  0x3dee16563cf0f3faU, 0xbd5af1973d20af02U, 0x3e22333bbc0092fbU, 0xbb78f4b73e124bc8U,
  0xbda912c83d81ff6aU, 0x3d2b5b623d846f67U, 0x3e15fc603d41cbe2U, 0x3d9a9e29bbf97a44U,
  0x3d2c7af13d20e66eU, 0x3d06efbd3cd834a2U, 0x3c88014e3e2cf4a4U, 0x3d84cb903c50970bU,
  0xbca1b0293cc672a3U, 0xbd2a10113d493479U, 0x3e864ab03d8974abU, 0x3d3562ddbd734e86U,
  0x3db005943d3d1fefU, 0x3d4394a1bd927814U, 0xbd2f65e43d982048U, 0x3e42b3303cd50dd0U,
  0x3d30d5a43d1d76b3U, 0xbdb7a0813e213241U, 0x3d545a173d9979abU, 0x3dca7e57bdb2e666U,
  0x3d3eda293c38abd9U, 0x3d82eda53e334d2dU, 0xbda87cd53dd49b63U, 0xbd4edc573d98ecb2U,
  0xbe9a94bb3db337eeU, 0xbcbd2cd13cd1b01eU, 0x3df04a0bbb6e295aU, 0x3dad63af3d6eb38eU,
  0x3cfc692c3c4994b2U, 0x3e0637ca3bdfe34aU, 0xbc39a0853d81bd0dU, 0x3ddcdaae3d1af500U,
  0xbe87faae3e6910a4U, 0xbdefbf9dbb4a9e5eU, 0x3d0b82623daf6421U, 0x3db2180f3e282eb0U,
  0x3d6d8f3c3de59a33U, 0xbd164c8abe56e113U, 0x3ccd32023bb35f56U, 0x3e02bc5a3d28db4aU,
  0xbd80dbca3de03cc1U, 0xbdb1eaf5be2ef473U, 0x3d6d68193cd22d29U, 0xbd3822163e328ee2U,
  0xbd23293f3e3a48d4U, 0xb98e913fbd0395aaU, 0x3d5164fa3e02105dU, 0x3d7dec2d3d2e8b4fU,
  0x3e00c9a2bc921d99U, 0x3cd0f620be153594U, 0x3dc6a9d8bd85d6b3U, 0xbcbf7043bd857c26U,
  0xbe22a0043dbb326aU, 0x3dd1c3d3bd28ef14U, 0x3b9ad1a0bb0fc8d6U, 0xbb9d05bebca88ba9U,
  0xbc805a36be27f76aU, 0x3d63de57be15cae0U, 0xbc883421bda50edaU, 0xbd3394b5bd876d54U,
  0xbd5148cb3de20b56U, 0x3e03894ebd53e927U, 0x3d50edb03db507efU, 0x3e0600cebd2bef9cU,
  0x3a5c13b7bd2308ccU, 0x3d12c897bd87537cU, 0x3dc2f84dbc71105dU, 0x3d18c211bd61c916U,
  0xbba45e57bd664d43U, 0xbd0dd9093b8229e2U, 0x3d6d66f73baf1897U, 0x3d8a04c8bd015387U,
  0x3d010488bd16f7a9U, 0x3ca17ce9bd78b36cU, 0xbdf935fdbcd6f19dU, 0xbdc0d9b23d380ad5U,
  0xbd09c6b9bdba15bcU, 0xbd818b4e3db65076U, 0xbd8eba5fbd27e5adU, 0xb8e4e8fcbe02538dU,
  0xbda2fbc43c208c63U, 0xbe8988d03c659fe2U, 0xbdc8992f3b85cf24U, 0xbc8690ea3d899338U,
  0xbcafbbe1bc4b6967U, 0x3d76ff51bc180678U, 0x3c9c8dd43d4de4acU, 0xbdfbd61cbd9908e2U,
  0xbbec73923c96cc05U, 0xbc2b36cabd95898cU, 0xb7c946a0bd9fb99dU, 0x3d125459bbf65ba4U,
  0x3c9be1f83d9709b9U, 0x3c9a11dd3d94060dU, 0x3c55d58c3dc7ef77U, 0xba625678bd5b4606U,
  0x3c963bec3a4ad4c8U, 0x3d0093d43dba4e45U, 0xbc9ac2d33db329a7U, 0x3cc1a0a5bc5729f1U,
  0xbdaeb5463d6f0bbaU, 0x3c618faa3da75a46U, 0xbc601c7f3cbcf7e7U, 0x3e13e0063dafea10U,
  0x3dd719353d3194a1U, 0xbc09c2febd0d96fdU, 0x3cf38a023ccd0515U, 0xbbb3fa353c9f076aU,
  0xbe1794d13bef3db3U, 0x3e06c0693d18d3f5U, 0x3d59c779bc83907eU, 0x3d15d9f33d8b1f2eU,
  0x3e2fc341bbd891f6U, 0x3d5388793c85354aU, 0x3e4b8874bc4e662eU, 0x3b9e6cb7bd02b425U,
  0x3ded23eebd59a090U, 0x3ddd5b4bbd4fe445U, 0x3d315b0ebd46ca52U, 0x3cb7af20bcded276U,
  0x3b9bb2713e0d120dU, 0x3cfda02a3d17a572U, 0xbce7303bbd00cabcU, 0x3d7847343c02e702U,
  0xbd67a1ecbd846d5eU, 0x3cfa2743bd341ec6U, 0x3d8893e5be066ebcU, 0xbd7095763debaae0U,
  0xbd0899b33d4f12caU, 0x3d54a990bdf398ebU, 0xbde81a38bdb04b54U, 0xbdd97dd1bdd94e57U,
  0xbd599a73bba3b289U, 0xbe0a32a8bc2469cfU, 0xbdf532213cae5596U, 0xbcdc3dedbd546b33U,
  0xbbb5ffcb3d357bdeU, 0x3b0e98c2be72d055U, 0xbe036427bd665487U, 0xbd7e23d1bd57695aU,
  0xbd25e7e43d09e577U, 0xbcef716c3da40058U, 0xbe5635593d2e1edaU, 0xbc9f9a08bdb2b335U,
  0x3d881d733cd51f65U, 0xbd5e9c72bdf11909U, 0x3c3c2a95bbbdfae5U, 0xbd181acabc705f10U,
  0xbe051e48bcef4469U, 0xbd327381be3df5edU, 0xbd2d5a92bd751bceU, 0x3ba3a1e0bda761f1U,
  0xbded7e9d3bfcb980U, 0xbe0f46a03c828b94U, 0xbcbba666bdaddaaeU, 0xbdd250933cc2a9a7U,
  0xbdb10c7abd435fa6U, 0xbd242ea9bd2c4a4cU, 0x3dd997a53c4124a1U, 0xbc41216dbc260d76U,
  0x3c8525a13d8ea45aU, 0x3c05a00bbc8255c7U, 0x3dab2a043da47cd8U, 0xbab8d07a3d258b01U,
  0xbdb743a93c2154e4U, 0xbd4d18d1bc7a6444U, 0xbd264ec23d49e02fU, 0xbd2d9a593dd6a314U,
  0x3d0789123deca928U, 0xbd424f593d8ec857U, 0x3dbd24553da019f5U, 0xbc1fa4fe3d96025dU,
  0x3d8d4db73d6b6de4U, 0x3e0654fcbd1c2131U, 0xbc4ae2cf3cecf9ffU, 0x3e4629093dcde1ebU,
  0xbd57cab73da1cd58U, 0x3ce8fea93c4ad711U, 0x3d7732333d6e0e11U, 0xbd2ac9c23cb7555bU,
  0xbd12b9853e4a007aU, 0x3d8763803df02f51U, 0x3e48e6893e20306eU, 0x3da9d7ea3d0be20bU,
  0xbd952d2d3d8177ceU, 0x3dbd31bf3cf8c1b9U, 0xbb9d6b423e0d4854U, 0xbd46b9183d226ef3U,
  0x3d8f696b3c93aae8U, 0x3cae597a3e0f9029U, 0xbd1fc94c3d997597U, 0x3da26f2ebdcfb8afU,
  0xbbc6397c3d3a832cU, 0x3dfe54643caaf977U, 0x3d7aeb2f3c36f357U, 0x3d5a7d78bd4d2481U,
  0x3be4f3143dfed324U, 0x3b98719b3e013763U, 0x3d1603c1bd8c9801U, 0x3dc15ad53d1a8138U,
  0x3e27772dbc58d818U, 0x3d51df36bd88c24aU, 0xbddbb5c23c47d07eU, 0x3d3f4ba2bcab6c88U,
  0xbd8d0b233cb201b0U, 0xbdd2df8ebd9e5525U, 0xbdce2c5dbd8c6237U, 0x3e0b455fbd4f2ee0U,
  0xbd830937bae046dcU, 0xbd9c44a5be0ac6d4U, 0xbddf4ad0bde77dc7U, 0xbe31645f3ca6ce0bU,
  0xbd8e33f0bddcac0cU, 0xbe3602683c3db968U, 0xbdf9fb1a3d0cff91U, 0xbd87b17a3e02cd0bU,
  0xbd7b91383c47e91dU, 0x3ccc9e5cbd99c8b8U, 0xbcc37826bc0ab165U, 0xbcf6e5bdbdd67a3dU,
  0xbc960fbf3d089b17U, 0xbc7923a2bd197509U, 0x3cc49ebabe0a9004U, 0xbd87b2e03d26ef60U,
  0xbd3d91a13e642ba7U, 0xbe19f919bd91457eU, 0x3e32e48c3d709442U, 0xbde1dce7bde226a7U,
  0x3d975d9ebd5c3b06U, 0x3da55e23bd0aa330U, 0x3dd8ce663d4b0e0bU, 0x39897d433dffd5d7U,
  0xbe32b69f3dca64ffU, 0xbe8ce4e2bd86083bU, 0x3e1ad315b9f33294U, 0xbe6800013caaa6e9U,
  0xbd8fd75cbe3201c9U, 0xbb5dc9cc3d4140c4U, 0xbd84b5a9bd1369d4U, 0xbe1d5f403c4d93a9U,
  0x3e3f008dbbd4df74U, 0x3e0d7fd93d06199aU, 0x3ca257043e0ea8baU, 0xbc09eec03d906699U,
  0x3e2fb29e3da47494U, 0x3da6d0ef3dda041aU, 0x3dbe6fe93e42f34aU, 0x3d2dcdfa3b8c273aU,
  0x3e240c6e3de32084U, 0x3cf652283c3564c4U, 0x3cc7c8003d86dd2bU, 0x3e13a56abcd257caU,
  0x3d9ba9863de7d8d4U, 0x3dfbd22ebd82e926U, 0x3d2d0875bb809176U, 0x3dd520633e15127fU,
  0x3ea57b0a3e1e14f1U, 0x3d6bd2ad3c2515bdU, 0x3cd6b1c73e176f9cU, 0x3cf76c503dac0396U,
  0xbc49fad23df23d1aU, 0xbcf327173ed0e74fU, 0xbd108fb23db0c703U, 0x3ccb27b83de356eaU,
  0xbd12977e3e03d37aU, 0xbbb50a81bd79b862U, 0x3c8b4c4c3c75b5d1U, 0x3cdecd653beea0f9U,
  0x3cabdd5a3c1ad757U, 0xbca3c9783e0d375bU, 0x3d13b52e3e3bf802U, 0xbdb40b40bc27b317U,
  0xbd3048afbc695608U, 0x3d555cc13d92f0a6U, 0x3bf841503b3554bfU, 0x3cffdbb1bb820f9bU,
  0xbd2e4074bd6098e6U, 0x3d4b04e63dd2a57cU, 0xbcdf14b43dddeb17U, 0xbc3b593f3a233138U,
  0xbd4a8b283dc0cbbeU, 0x3c32f3b73e2e066dU, 0xbe02549ebd29d37fU, 0x3c87935c3c059df2U,
  0xbdf2a767bd4bb95eU, 0x3c424ef13d28700fU, 0xbcb05fd13e151694U, 0x3db6cd5d3b821b55U,
  0xbd3bc561bdccc22dU, 0xbdc7dfb33daaf73dU, 0xbdf21897bdb7b25dU, 0x3d12febdbdf47ea0U,
  0x3d3e5eb23d1833ebU, 0x3c296737be1b56b9U, 0x3c13570f3dbb1afdU, 0x3e0ddf42bc81f485U,
  0x3e1f5576baca8cfbU, 0xbcaebb5e3de07223U, 0x3c2265b63d98bf54U, 0x3db38c2e3bce12b6U,
  0x3ccce5553e045eedU, 0x3d9659bc3d3a4775U, 0x3d4a0f5d3b106524U, 0x3d317c44bd5c9d28U,
  0x3e325bc3bc41991fU, 0x3ddc0ff83ca5454fU, 0x3cba75f63cdc3c32U, 0xbc02e5bebd2a8db0U,
  0x3d4cd0af3daaee86U, 0x3aa7b4bd3c96bc43U, 0x3ced02d8bc5a52c9U, 0xbc8c35333b71f687U,
  0x3eca93183c55db25U, 0x3d79b53fbd2678dbU, 0x3ddf87933ded3e3cU, 0x3ce446b4bc8bb4d1U,
  0x3d4d70da3bd2fd6eU, 0x3d1a400d3d855504U, 0xbc9acf903d94a58aU, 0x3a9d721abcf65388U,
  0xbd2ec4b1bca8db60U, 0x3e19a3c4bdd39c49U, 0xbd82dfaabcdf0a7fU, 0xbc88a6fbbd259ecdU,
  0x3c184d4fbc67da43U, 0x3cc0e3ab3dd6878dU, 0xbccd35293d8bc7a0U, 0x3da43b35bc2c1057U,
  0x3d3d7195bdb13e9fU, 0x3e09ee983d042914U, 0x3c5009cc3d7dd603U, 0x3d8aa11dbbb5c602U,
  0x3d6a0935b9602f51U, 0x3c8af5cfbbf49173U, 0x3d57653fbe330d97U, 0x3d580091bd16f7f2U,
  0x3dbba171bde202bbU, 0x3e37d9d33d6bc433U, 0xbd6328813dbba8adU, 0x3df7e59b3da193bcU,
  0x3caf68b6bd933aebU, 0x3d5f9ac43d66a920U, 0x3e27c4aebca4466cU, 0x3d5c89bcbc2cb873U,
  0xbc5cc4cebe0149eaU, 0x3e35f9f8bd01de35U, 0xbd06493b3c0d5b69U, 0x3e19b18b3dc77e5cU,
  0xbd44a3e2bb7b08a5U, 0xbca0ead5bd4c6eb0U, 0xbcd17c2f3cabfe1eU, 0x3e7547b53dac949aU,
  0xbe19498ebd71c75aU, 0xbdcd338d3de998b0U, 0x3d55ecce3dc7d08eU, 0x3d4edff23ddcfed5U,
  0x3d196ce33e24b1a8U, 0xbbb348ecbc8dc2dbU, 0x3c6e41503bedaf54U, 0x3dd95af53ca9eac1U,
  0xbe3719d5bccbc29fU, 0xbcc0525a3b82332fU, 0x3e12d8e93d5f619fU, 0xbd2d84323d3c928dU,
  0x3d4e80f43e352646U, 0x3cf822f6bdb0bcb2U, 0x3ccf4869bd8d6a26U, 0x3d7e8f843be7e726U,
  0xbaa5e6393de74e02U, 0x3d792ab4bd9970a3U, 0x3dac9e553b2d17d9U, 0x3a216f68bbc91dedU,
  0xba5cce26bc7a7877U, 0x3e0fe5423cf2c49aU, 0x3ce86d8b3dc2f737U, 0xbd6f171d3e1a6107U,
  0xbeb00cc3bdf76a30U, 0x3d966910bd2877cfU, 0x3e2cb4cb3ba1c756U, 0xbde344d0be1e8f99U,
  0x3e07c8633d1e000fU, 0x3d8e76803dfbbffcU, 0x3d86264b3d45a672U, 0xbd51930ebd35f6c0U,
  0xbd6750563d5b393aU, 0xbd94fcd03da32620U, 0xbc58a26c3e467e07U, 0x3d65441cbac3b96aU,
  0x3e572fd7bd604994U, 0x3d19fada3d46fd55U, 0x3cc430c0bd59c932U, 0xbe1ced223cd0a99fU,
  0x3d533ea3bb0d4d97U, 0xbcfce309bd08ecd8U, 0x3e2f128d3e55ae00U, 0x3d96c1023d69ffcfU,
  0xbd9f9c2c3c8c9443U, 0x3d000f7d3d979c58U, 0x3e2dc4aabca5f580U, 0xbde08cf43e0026f3U,
  0xbc9a80dc3e46629dU, 0x3d1cc307bc8eab5bU, 0x3de5519e3d5dfde8U, 0xbc7414983d894241U,
  0xbde19272bdcf0844U, 0x3e032452bc74911aU, 0x3e5355a23c54341dU, 0xb91f50383d8fcb21U,
  0xbba79bc43dd82bbeU, 0xbe3ecc54be2e0c13U, 0xbc2d4c0fbdab8dc7U, 0x3c9b27183db3e459U,
  0xbd47c535bce9ca6aU, 0xbe1bdaf8be3b560fU, 0x3cc6edac3e48513aU, 0xbd1789d23c830639U,
  0xbd9c6a803e33c7bbU, 0xbd8861e6bc9d7625U, 0xbc0e97713cbe0682U, 0xbcada2fc3d9c66f8U,
  0xbcecc2fa3da18986U, 0xbc2713673d21ca80U, 0x3bcab6653d803d0dU, 0xbcb660be3dabaea2U,
  0x3d5e63a43d9720f1U, 0x3de3c5bc3cb37ff4U, 0x3db4da78bd4b127fU, 0x3da8e3213bd26dd2U,
  0xbc6416bb3d06fdd9U, 0x3d3640533e8d074bU, 0xbb942c253e375fe6U, 0x3de4be113d394951U,
  0xbeb7c3e83d42b0dbU, 0xbdb856e43d10c026U, 0x3d4496f23e0ba4dbU, 0x3d398f593d63966cU,
  0x3e0054a23d7f99beU, 0xbd207c5f3db92429U, 0xbc3ef0ff3cc30e51U, 0x3de964143c188d23U,
  0xbe7f62be3e062c96U, 0xbe613a923dadc9e5U, 0xbb412b3e3e06944aU, 0xbcb87a663db537e4U,
  0x3e6172943d440357U, 0x3cdd95803d961858U, 0x3de59294bc90b309U, 0xbe1a83d93dab4391U,
  0xbda6ae4a3e54b8a0U, 0x3bee5e703e30de8dU, 0x3df267663dd4deb8U, 0xbc5f075b3e15a2daU,
  0x3df8cb543db643cbU, 0x3d85ebfebb3ebd12U, 0x3dccc60d3e20898fU, 0xbc69f4933d5bd09dU,
  0xbc631598bd95f307U, 0x3d2759883e188e8bU, 0x3ce3386fbd35a39cU, 0x3de2dff4bdb17db3U,
  0xbc1dc1de3df5c773U, 0x3da804cc3cc4b92fU, 0xbbb53e9b3e138a8bU, 0x3d1f83c83c038de3U,
  0xbdaa2781bde799c6U, 0x3e0b855abca90cb1U, 0xbdd9f978bdd2d9d2U, 0xbe15b3dcbe136450U,
  0xbd58ddffbd749c8fU, 0xbdcd2ea33e2ff3a8U, 0x3c04822fbdff0faaU, 0xbd77408ebd89c589U,
  0xbe262a56bc821088U, 0x3c50b9e73c506a6aU, 0xbd6312203cc4cadaU, 0x3dda3927be21a663U,
  0xbc7d8069bda1481aU, 0xbdaf07a83ea4e3e1U, 0xbc5eb6203d5ef870U, 0x3daaf939bd28111eU,
  0x3e261bc43c84a94fU, 0xbe3c90ae3d33ed89U, 0xbd692a6f3cc8c60aU, 0x3c7ddf9e3e1d8a98U,
  0xbca9b2f9bdd57655U, 0xbc86ca003e850c38U, 0xbd6aca7bbe2d21a4U, 0x3b913294bd575616U,
  0x3ca4846cbd08873dU, 0xbdb214ccbc2418acU, 0xbd89006d3dd31206U, 0x3d4899933d8a6bdeU,
  0x3dff17dfbe5d40ecU, 0xbd3403ab3da4008bU, 0x3c0314f3be208834U, 0xbe1adf513b2d9a3aU,
  0xbdf3c2c5bda2e75fU, 0xbc91c334bd0774aeU, 0xbe385fc73dacfc37U, 0xbda7a29c3cb2ac14U,
  0x3c38fde0bd0213e6U, 0x3d4cc706badc9fedU, 0xbe5465783d27b186U, 0xbe3c459abe1eca98U,
  0xbe30fababe1cb370U, 0x3dd20a7fbd09c5b4U, 0xbd92af43bd4a2f5aU, 0xbe59a3b5be3a7c55U,
  0xbde0f83f3cdc5d29U, 0x3e09541ebd489b41U, 0xbd0b05063d63a444U, 0xbd409616be0d623cU,
  0xbe38a063bdf30807U, 0x3d67e28ebe116081U, 0xbd8b92e53d1f70a8U, 0xbd4bbfb8be32c35fU,
  0xbd649dd0be1bcae9U, 0x3cb0a433bdd269baU, 0xbd473fdbbd0ff74aU, 0x3dd1cbe2bb5f257dU,
  0xbd7c53d4bd14d76dU, 0xbbf409fe3deead5dU, 0x3d82734d3d87682fU, 0x3ce64d1bbd0cc4eaU,
  0x3dd995853d076561U, 0xbd68ef6fbca55d42U, 0x3c68672b3db16a67U, 0xbd3bddbbbc84fea1U,
  0xbd55c0013db4cf71U, 0xbdab86a83d394d7cU, 0xbddf2e883d26c0f0U, 0x3e062428bda1ee55U,
  0x3d7c43bbbdaea097U, 0x3da46a1e3d5b6119U, 0xbd96ca0abcd79c82U, 0xbd1ad5ac3c70fc2dU,
  0x3e4c62c9bd643b13U, 0xbd7458793e9310faU, 0xbca705123e2369e8U, 0xbb96a2c4bd2314dcU,
  0xbd4ab5b1bd5b830cU, 0x3d4798553e8fcfc9U, 0xbe5cc2e8bcd3ea3aU, 0xbce9690cbd808e17U,
  0x3e9a3d80bd977127U, 0x3ad9c5093e00ee3aU, 0xbdf1ee773d7c1b82U, 0x3c8c2577bda53a57U,
  0x3e0f68ebbd914c66U, 0x3d930d203d21ae66U, 0xbe1d83cfbdae2ff0U, 0xbd1d0d30bd6d837dU,
  0x3e7f028cbe15c17aU, 0x3b8723e9bc6f4c49U, 0xbd6afeb23c21370eU, 0xbe080565bde63b3bU,
  0xbc061f71bde01bf7U, 0xbc597b123ceb284cU, 0xbdf397fdbe1d94b9U, 0xbe3e29bdbd2a7d5eU,
  0x3d983432bde38e61U, 0x3ce1c814be2e52bbU, 0xbd6df1e03da2f2afU, 0xbdba7338bd395f8aU,
  0xbdad1d24bdec8485U, 0xbcffb113bd4058dcU, 0x3d84aaa1bdf27c79U, 0xbe145447bde06392U,
  0x3da8d3503d558d35U, 0xbc73f7dbbd8d8769U, 0x3cfd3de33dcf3f69U, 0xbdcc3f863d016d0cU,
  0xbd75b3af3d04ddc1U, 0x3d164e30be2b53efU, 0x3ddf9152bd6f5cb8U, 0x3ce409e83e0dd9d2U,
  0xbd40ddeabba3ad9dU, 0x3ca291463db56c14U, 0x3c26ef83bb363dc3U, 0x3d80eab73cba430fU,
  0xbdd8faa8bd0a70ebU, 0xbd0dd6653d8c8686U, 0x3d2bd9543dbe92a5U, 0x3d6b6f3d3b08c2d1U,
  0x3db13f5ebc20f8a8U, 0xbd6bfef53cccbb4fU, 0x3d8749433c8a1e6dU, 0xbdd5761dbca62b2cU,
  0x3d2a65993c63e66dU, 0xbd75e56f3d8d53baU, 0xbda1e0b93d1ffce7U, 0xbc72e3c83dd5e574U,
  0x3df6aab03d7627b6U, 0xbcee0a353db6daa7U, 0xbc90b95bbd35ec87U, 0xbde5ad3ebda82273U,
  0x3d1113d3bcf9e733U, 0xbe3fa72aba8d7696U, 0xbdf930ab3bad34d9U, 0x3c768227bcb37126U,
  0x3dcd3a063e055823U, 0xbbc3a3bd3c1f07a1U, 0xbe22840d3dcd929aU, 0x3de5f4cebd80799fU,
  0x3d51b8fcbc7fe42bU, 0xbe2dc8673e437b21U, 0xbb717ec13cfe8fbdU, 0xbcd18fce3e0483b3U,
  0xbd1abed43ec090feU, 0x3bf685bb3dcfad84U, 0xbe0612743dde5a6dU, 0xbc5b02953da894c0U,
  0x3df9e698bd81bf89U, 0xbcbe4c033e2ed3c4U, 0x3d8f2c003dff4b02U, 0x3d425c763ebc8f4dU,
  0x3cd8411a3e9c92c0U, 0xbc1627e13e1bb788U, 0x3dc687ae3d6dd86bU, 0x3d5e6d063db13f39U,
  0x3dde94423db363c5U, 0x3d991167bd0556d9U, 0xbcba11053da0909bU, 0x3dd7552e3e05b43cU,
  0x3d05cb153d072bf3U, 0x3c9ea8fe3dae05c9U, 0xbd3506febd665a37U, 0x3d73e68c3abc4bcaU,
  0xbda157ad3d98d780U, 0x3db43ae43db80e75U, 0x3d725677bb99ab5eU, 0x3cb2e94b3dee8683U,
  0x3cdda6c23d56b6eeU, 0xbcf6dc92bd65ecf5U, 0x3c877f7cbbc77b6fU, 0xbdc31a73bd1166acU,
  0x3d424ce0bcac32fdU, 0x3a8cdf383d924a2eU, 0xbd95db64bb684608U, 0xbd1cda5dbe3f6e1eU,
  0xbd525315be84c12dU, 0x3d91b32ebbebf4b0U, 0xbd74bd773deb4783U, 0xbda729003d587783U,
  0x3a7db5f8bd911e95U, 0xbdc9f8833de93371U, 0xbd403213bdd28449U, 0x3d04ed06be7a1065U,
  0x3dd3f9e0bb233a72U, 0xbc532be6bd372320U, 0xbd7be9073cb0a47bU, 0x3d938c293d3566edU,
  0x3d06742a3d92dd41U, 0xbde243f03d0fe5c6U, 0x3cce3800be9517cbU, 0x3ba4c18abb37201cU,
  0x3d2b72273da04594U, 0xbd0ea2e03d72ca67U, 0xbd81b4643d26fcdcU, 0x3daf474b3d86382bU,
  0x3c75c21bbdd3d7a9U, 0xbda2919d3e55ebbeU, 0xbda2a1803d1a6b1cU, 0x3db0d9be3da931a6U,
  0xbd9a2e553e55e708U, 0xbd27d3793e1792a1U, 0x3d4245dd3debd61cU, 0x3db3ce3fbcbfcfaaU,
  0x3d6ff96bbd84be05U, 0x3d84fa8fbb9f7e23U, 0xbd8b71463de98f82U, 0x3db611793e048fc3U,
  0xbc8422f23e093829U, 0x3c9d5d7b3ba91f57U, 0x3d81d4d2bda51666U, 0x3d8d196abddc065bU,
  0xbc4ae376be11c700U, 0xbc047ec43c3f8507U, 0xbcd80a873e64220dU, 0xbcc1b1e33de90022U,
  0x3d2829563d26a563U, 0x3cbff9153d3da236U, 0xbd04c93f3d245b00U, 0x3d8b2eecbcdc626aU,
  0xbcd38135bd2cf170U, 0xbdc01806bcdae463U, 0x3d954ddc3d50f4e7U, 0x3d4732483cf783e8U,
  0x3cb1a09bbe7717ebU, 0x3dbb4ce73ddb816bU, 0xbce7bd953db2d139U, 0x3d0a4174bd430a8cU,
  0x3e0bc6bfbd59a54cU, 0xbe0782083dd026a4U, 0xbbb89901be0b107fU, 0x3da8c798be8070f7U,
  0xbe093d5ebe6c7eedU, 0x3d4f2b383c9264c3U, 0xbde2dc353e163555U, 0x3e25476abdc9b30bU,
  0x3d4ac86ebe08fc61U, 0xbdd1adb53e8bd8d8U, 0xbd8f557ebe2a141eU, 0x3dfe778fbdde01c0U,
  0x3ddbc1a23d9b6cd7U, 0xbd238a443cfe4032U, 0x3d8748dd3def0b1cU, 0x3dafdca83d47c4a2U,
  0x3d89475dbd5bce17U, 0xbdcaded13e8031a2U, 0xbb95defebdb25769U, 0x3df67fcdbc70032aU,
  0x3d4d6611bd305fdcU, 0x3c0739f63d4adbdaU, 0x3aa0d87d3d789af5U, 0x3d9156b63daf726fU,
  0x3d0ca96a3c922ddbU, 0x3cab8eb03df358caU, 0x3e05e12dbc7ad80cU, 0xbdba18f6bb7bc64fU,
  0x3d5bd230bd5066bdU, 0x3d719c3fbdee92f2U, 0x3d2777cf3c3fd495U, 0xbe065dadbd61a721U,
  0xbc8b3908bdc9957fU, 0x3db72b093cbd8ea5U, 0xbd8ce8d6bcc03ca8U, 0xbde4ea2fbe17ca79U,
  0x3cd2ea7fbe261021U, 0x3d0d510fbe4322c0U, 0x3df06780bd814a46U, 0xbdea2254be0923cdU,
  0xbdaf93de3d9d2a21U, 0x3e04cab2bd89e7a9U, 0xbc6a71f63c5f685cU, 0xbda94f1cbe56fec4U,
  0x3be17b8b3c0ecb08U, 0x3e15aca8be121978U, 0x3e07ece13c85fd62U, 0xbd3dbdb03d265791U,
  0x3dbe0bf03c66cf40U, 0x3e612aeebcdc17b0U, 0xbdb69c1a3c09f90eU, 0x3d2e6062bce743a4U,
  0xbcec0972be21caaaU, 0xbe1410f13dd27be6U, 0x3c0320063d0f6299U, 0x3dbc12ef3d3c0162U,
  0x3d44c6eabd0225b2U, 0xbcb440fdbd7c16e1U, 0xbb9c6a10be21ddc4U, 0xbde206983caf3720U,
  0xbc2c1687bda2b743U, 0xbe7e17a9bc211869U, 0xbc9237393e02541fU, 0x3c55098c3e1076dbU,
  0xbc0103f63b2d8090U, 0x3d23951c3e49dd5aU, 0xbe10da2abe878ebfU, 0xbdabad4abde0a452U,
  0x3cbcda26bd1aef18U, 0xbe3cb92ebd97eb44U, 0xbe5ac2173dc7af3cU, 0x3c93886e3e018693U,
  0x3bba5ff0bda5a1ffU, 0x3c99bb433dbea8ceU, 0xbdb66033bda4c2eaU, 0xbe41ecaf3c08551aU,
  0x3d79653b3c82bd40U, 0xbd17ced83dcd195eU, 0x3d130cc33cacd0c5U, 0xbe4e80a43d8e0b25U,
  0xbe12f44d3b54cfe1U, 0x3d1452a63e1286f8U, 0xbd4da1e9bda02f80U, 0xbe105d9cbcd166a4U,
  0x3dd2cd3bbe3cad1eU, 0x3ad6323d3d7a8f87U, 0x3ca139993d9c93f9U, 0xbd6a833bbd8937dbU,
  0xbd4ae584bd47fa4bU, 0x3e247945bd158894U, 0xbb7c3723bd69abc4U, 0x3d17814cbd9f02beU,
  0xbc8e81a5be0a3fd9U, 0xbdf0fbeebdd78021U, 0x3d24453e3db19ad5U, 0xbd5fc2acbcb50053U,
  0xbcb20a4dbdaf99c5U, 0x3e118f36bcfde21bU, 0xbcdf93f2bb83e2a3U, 0xbda2c709bc6f838bU,
  0xbd47928d3d17df40U, 0xbe03ddc4bd868d9dU, 0x3c74b43bbd9765dcU, 0xbdd605f23dc82af0U,
  0xbd9a3ba5bcf91823U, 0x3b93ec6f3dbbbb06U, 0x3d1b1111bdd8dbebU, 0xbe256f57bcd1b919U,
  0x3d5524d03e05e942U, 0xbd36d6fbbd803ef3U, 0x3daeac1bbce61585U, 0x3d371051bd94a72fU,
  0x3da18653bd89e35dU, 0xbb1a2f8d3e4e4c99U, 0xbd68131d3de8fdaaU, 0x3d8e03bc3cd55771U,
  0x3df9e088bce689d6U, 0x3c918ad1bdcaffabU, 0x3d60f3b7bc4f3fa2U, 0xbdc7c0c53d82b267U,
  0xbd4c6f3d3da2fdd5U, 0x3d551157bd39211fU, 0x3dde3cc73d4af4f4U, 0xbe17ceeebc3a6155U,
  0x3e5201ce3b93043aU, 0x3e412a87bdaa5d00U, 0x3dd7009fbc92eb2fU, 0xbe097adcbd93ecdbU,
  0xbd934972bd78802cU, 0x3e24e2b63cb82db2U, 0x3c2cfb06bddbf23bU, 0xbd016a42bd120e97U,
  0x3d58da2bbdbf31cdU, 0x3e07f5203d456472U, 0x3b56ebe13dc79f63U, 0xbd57176bbdf2bf39U,
  0x3a9dcac5bd6dbdf9U, 0xbd1ca3013c804af4U, 0x3d359ebf3c629739U, 0x3df0bb09bd1f1103U,
  0xbc581321bc8b8008U, 0x3d8916823e097994U, 0xbd0436833d7c90a6U, 0xbb041641bd664799U,
  0xbcbe11cfbd7e3394U, 0x3d89841e3d6db13bU, 0x3d0b1badbd01d518U, 0xbc4b20d13b9df56bU,
  0xbd84ad1f3dbe1f4fU, 0xbcc509cbbd74d8d2U, 0x3c08874a3d331a93U, 0x3cde3f2d3c51f185U,
  0x3c5cc99cbd012519U, 0xbda499473d446cf4U, 0xbda89aa1bdded8b8U, 0x3d8751323d9a4b5bU,
  0x3d0900dc3d237351U, 0x3d06756cba5ebdbeU, 0x3d889a943d6a8fa4U, 0x3cb4a0043c06a2b7U,
  0x3bbeb692bd5ffe8cU, 0xbcfd12343e085ff7U, 0x3b831a993d6f4dbbU, 0x3c8c42223e0362d0U,
  0x3dfbcbf0bd244e3dU, 0x3cd68501bd2a2dbaU, 0xbc6ce6c63ae3dc05U, 0x3db3a84cbcf97e23U,
  0xbd0580b8bdd8fbdcU, 0x3e04ae543d466347U, 0xbd89a303bd0916e4U, 0x3d32f7ffbc027ac5U,
  0x3e0946623d725596U, 0x3e3dd8fdbd976635U, 0x3e065a013d140806U, 0xbd352fc03d6ea5dcU,
  0xbdfe2312bd05a010U, 0x3bcacf4abdda8626U, 0x3daf583a3dd883e9U, 0x3e36c74e3d3b374cU,
  0x3e26a4ec3df0dba6U, 0x3df78ae7bccdc1ecU, 0xbd02f61bbd42dbc7U, 0xbbeb44d53cfbdb24U,
  0x3d25e50c3df235eaU, 0x3dec34f6bd6b9938U, 0x3d7f13313e09e223U, 0x3dfb22333d89c77eU,
  0x3d3e551e3bb97cfaU, 0x3d01f817bdbf9660U, 0x3e0d2181bd1153bdU, 0x3c9cac60bc82f8aaU,
  0x3da4567c3e18f678U, 0x3d9f301bbc590589U, 0x3e034e633e0c73eaU, 0xbca105bb3d854a72U,
  0xbdcc1d1a3e0515e1U, 0x3d7f0fd73da87f7cU, 0x3e0bec7a3daadbfaU, 0xbc3984113d6c07fbU,
  0xbc887576bd7479c8U, 0x3d0e72ad3dbf12efU, 0x3d4f941b3db1997bU, 0xbdb0c2c63dae688dU,
  0xbd6582cb3dd524bfU, 0xbcdea7583d12d3d5U, 0xbbbc7782bd820c0aU, 0x3a68dc4e3e0c47efU,
  0xbc3dc79b3c1f7f80U, 0x3dc2ed4bbcd92632U, 0x3e16e3733d71bffdU, 0xbd715d26bcd8b4caU,
  0x3c1f792b3e07903eU, 0x3cf6a4413d176842U, 0x3e144099bcf619d6U, 0xbca88d00bcd145e1U,
  0x3da74b3d3c913248U, 0x3d60c0de3c30b1fcU, 0x3be2252c3df6d5e2U, 0x3d4e05d93d9a2f2cU,
  0x3d040f833a33fd37U, 0xbab59b73bd6639c5U, 0xbe1842583b198267U, 0xbd4cb5ac3d6b24a5U,
  0xbe157122be46a8dcU, 0xbd8a0fe83da7f02dU, 0xbcd039843e296e6eU, 0xbd9304933d6411e8U,
  0xbd856d67bdb0dec3U, 0x3d499c133d43fec0U, 0xbdb5c1b5bd840790U, 0xbcb69bd3bdf8cc98U,
  0xbd90a0babdac56e6U, 0xbda12a29bdd139c3U, 0xbe27b5f8bd04884bU, 0x3db2eaa8be165cc9U,
  0x3d74008d3c126878U, 0xbc9c14f9be0504c1U, 0x3c9165b63c67770cU, 0xbc3f2d7cbd928aa5U,
  0xbdecad6ebc8f09dcU, 0xbcca26373c9f03e4U, 0xbdd812383dd69015U, 0x3c96de4f3d2c53c4U,
  0x3e1c208b3d865cf8U, 0x3d9906b9be11e3aaU, 0x3cd4f09a3da9257bU, 0xbd0fc8ad3c6dd2b3U,
  0xbd189b483dab2ba0U, 0xbd9b8435bd692875U, 0xbb4eb17e3ca0834bU, 0xbce9d0733cf058caU,
  0x3c365f16bdb7c6b5U, 0xbd3588543d2383f6U, 0xbd578c1bbd7aba91U, 0xbd6414693d00e9acU,
  0xbdab98b53d33965eU, 0x3d641b02bc84c02dU, 0xbd3709093c9e28bbU, 0x3d52485abe18b243U,
  0xbe7bbd253ca51ce7U, 0x3ce768dfbb3a177fU, 0xbdb2bd9ebdf2e28fU, 0x3c8bf3a1bd4cc124U,
  0x3e1a08d83d3a59e6U, 0xbd0803e83bb2099bU, 0xbe378032bca7d150U, 0x3d6a7dd93c5d05eaU,
  0x3d1d774c3db700a4U, 0x3d7005e138cca56fU, 0x3db883a93d2ccac4U, 0xbd4a24c23d8ec3ebU,
  0xbccb010e3d726843U, 0x3cdd72a1ba1e981cU, 0x3da47d2f3dd05da8U, 0x3dc030e43de6b56eU,
  0x3d8d773d3d8724ecU, 0xbc93ffa03ccdb41aU, 0x3ca82f053a80e05cU, 0xbd42ca66bda3b7b7U,
  0x3d7954c3bd68d543U, 0x3cf1bbeb3d5604dbU, 0xbc7c62ca3d8346aeU, 0x3dab1d953dc36930U,
  0xbdbc8c2fbcd250b5U, 0xbc2a12bdbd6be5cfU, 0xbdcc802e3b0be15eU, 0x3b7770c8bdb101eaU,
  0xbd53f5f1bd8664c0U, 0xbd4b5a03be100adeU, 0xbd0b351bbca1ddb6U, 0xbdcf4dfbbcebe0ceU,
  0xbe636adebccae01aU, 0x3d7dce353b47f220U, 0xbda1d99d3deb0103U, 0xbe06ab8cbd085bafU,
  0x3dc168e4bd502233U, 0x3bff70f8be21a51bU, 0xbdacfa793ac16858U, 0x3d0e7ed7bc76d39eU,
  0xbdc1da4abe1c6197U, 0xbd003eecbdadb167U, 0xbd4315febddea40cU, 0x3d156905bcbcec8dU,
  0xbd9087073dd5e383U, 0x3dcfbf51be848376U, 0xbbf9dbcd3e6cb853U, 0x3c1373dfbe147fd5U,
  0xbd53b424bdff23fcU, 0x3cb74d753cb6ffcdU, 0x3d80f067be0ce831U, 0x3d8f4c76bd55316fU,
  0xbe265124bdf1aed3U, 0xbda19019bdcdd48fU, 0xbd0bbf753e09b9fbU, 0xbd928d7fbb1c4edcU,
  0xbdcfa7b5bcbb47e7U, 0xbd9fa514bd227d11U, 0xbe031be3bdb8fd59U, 0xbc38f4ab3e14249fU,
  0xbe3fea193d187288U, 0x3c1baf793e0bb869U, 0x3dc096453dafa4c2U, 0xbd53a1f3bd3e0095U,
  0xbe13777dbd8513c7U, 0xbd85fe243c564ee6U, 0xbcceafabbd3ba4afU, 0xbd00ff1cbdcef406U,
  0x3dade9c4bdaf330fU, 0xbd061bbfbdc1fbadU, 0xbdc3297bb956eee2U, 0x3cf746d3bd3ae7a0U,
  0x3cfd090b3d18b455U, 0x3dd7cf2ebd920492U, 0xbd6a13bf3c88448bU, 0xbc911f5ebaf3c6e6U,
  0xbd8cf6373d23322cU, 0xbdab3a873ce81be2U, 0x3c4761003dabeac9U, 0xbc8f0cf73d8b1169U,
  0xbe537bc73d63452aU, 0x3d7f3c6e3cf5ec22U, 0xbd6eb0293c9895b5U, 0x3d91d89b3c19862aU,
  0x3cc435c0bda52b32U, 0x3d86da19bd6c924eU, 0xbca6c8e33d6c7610U, 0x3da9cd993de6dca1U,
  0xbe53db94bca7f375U, 0x3e2c79b43dcc1550U, 0x3d0c1333bd2ae80dU, 0xbbe89b32bd356c13U,
  0xbc82f8b03d86a0c8U, 0x3e180509be93773bU, 0x3e24125e3e803f4bU, 0xbb4f457c3e447b38U,
  0x3c1212c9bd6ce533U, 0x3e217838bbbb4b63U, 0x3e531217bdd86b8eU, 0x3c84400ebe0aba8eU,
  0xbd2b95273dd9f8f5U, 0x3e338dd1beac04b1U, 0x3de670003dbefdd0U, 0x3d1955153cae3404U,
  0x3db8d4b9bda21581U, 0x3d0ab743be4ab0f6U, 0x3df62305be3bf181U, 0xbdf7fbddbd9fce7bU,
  0xbe1d82d03b3b82fbU, 0xbdb32b04bd1378caU, 0x3dd3e597bb5d1881U, 0x3e40fdba3c1feea4U,
  0x3a965280bd664b58U, 0x3da04e68bda2e4c7U, 0x3da2573cbe46f515U, 0xbdcb5bf4bc2d21b3U,
  0xbdc277a8bd3162edU, 0xbdfddb713c92a65bU, 0xbd8a31ae3bc044d7U, 0xbc420806bdbf9efbU,
  0xbd31a00cbdd41486U, 0x3d158b46bb0e311bU, 0xbd8f07db3ca50bf1U, 0xbd14bc9dbd043cdeU,
  0xbd8d2fe73caf385aU, 0xbd33c158bdd6de7eU, 0xbdcb988e3cb35adcU, 0x3d0a2eb8bde2b596U,
  0x3dbdc0fe3e2cf81cU, 0x3c5f7d743cd80641U, 0xbc9d12013c8e32d6U, 0x3d5bf0a5bc8363b7U,
  0xbc62a1c3bca05130U, 0x3d53f6a9be04dd0eU, 0x3d28d9343d766ac4U, 0x3db1ad073da78d4cU,
  0xbc9d18aa3c5df7a8U, 0x3c4d4cfcbdba19d1U, 0x3d2c3325bce2aaa4U, 0x3cef905a3b5a9f4aU,
  0x3c89cef8bd127877U, 0x3a22f9ebbe4676bdU, 0x3c14f6ca3e213560U, 0x3b31fee73e0c04c2U,
  0xbe20d1543d1376c7U, 0x3d0c7e87bc384b03U, 0x3e65b2f83c180b99U, 0xbcf9fa0b3cd0668eU,
  0x3d8f4faa3db4ea7cU, 0x3e6c5ee8be34803aU, 0x3dd5285d3e5787f7U, 0xbc35646a3d3e70c3U,
  0x3cf03e16bdcfe42eU, 0xbc937207bdc66fd7U, 0x3e3b1d5d3b382bb0U, 0xbc8ee651bd1f78cbU,
  0xbccd7e533e4e277cU, 0x3e496cb2be099389U, 0x3e01d3c73c4dbe40U, 0x3c66ecdebc8c4e23U,
  0x3dea563abbbfe4a9U, 0x3d5658d9bde802eaU, 0x3d8cb7f3be29305fU, 0xbbb7dcacbc1f9a39U,
  0xbda7228b3dec6bd2U, 0xbde6d72f3df200fdU, 0x3d8c4022bafb769aU, 0x3d2ec3953dadc4b0U,
  0x3c7159b53df13f11U, 0x3d4707753d9663bcU, 0xbc4cf203bcb626beU, 0xbdccfff0bc7c4d2aU,
  0x3da9bee93da4f6ceU, 0xbdc683943d26da74U, 0x3b4fc6e1bd3ed1cbU, 0x3d5955dc3cc690eaU,
  0x3b01bd453d5fb32aU, 0xbdbce7eb3b36819dU, 0xbd9aa9d83d00f26cU, 0xbdd3785abd94a542U,
  0x3daa716cbd956959U, 0xbbd15772bd1f2e33U, 0xbba826a1be0b7b54U, 0xbdfb3bed3ca23dd5U,
  0x3d7ff2223e106ba2U, 0x3cf7c985bb2ee87bU, 0xbd48e0873d5eb765U, 0x3d2d2d4a3dbeeebbU,
  0xbd95d7c0bd23cf3bU, 0xbd1feab13ca8e67dU, 0x3c0a7db73e36f5c8U, 0xbcff6b4b3d78c4ffU,
  0x3d69cfab3d5de105U, 0x3e7859133d321933U, 0x3d1a410d3cb5014cU, 0xbcb7865c3cc5b422U,
  0x3d830b7bbbe2a07dU, 0x3d75819dbe768a21U, 0xbcc69b3f3e5a9656U, 0x3d41794d3d99097bU,
  0xbda1720fbdb01c2aU, 0x3daaeed6bc24a939U, 0x3d10ed77bb91e8b1U, 0xbba7f7d3bd99c699U,
  0x3c4d6e2f3e250952U, 0x3df6b14ebdc0f5b2U, 0x3e2584ce3e4bb488U, 0x3e390a0d3d80a5e1U,
  0xbd8ba8ce3c94a6deU, 0x3d61c2a2bdb24e86U, 0x3d805e393dea4285U, 0x3d4059de3a8768b6U,
  0x3d8ca1893d7c2ad7U, 0x3cb60eb3bd156196U, 0xbc1dabfa3dc768acU, 0x3df23ca83e01bbdcU,
  0x3cf633b33e1203eaU, 0x3dbf0adebdb0578fU, 0x3d14d26b3c1fd23dU, 0xbd3f176b3bad52e2U,
  0xbcf6191bbd724199U, 0xbdac70933e06787aU, 0x3cf8cecb3dadef54U, 0xbd0d2f353e2235c7U,
  0x3db207203d845b37U, 0x3dc2b49d3e5f1198U, 0xbcfb6ee83ba027a4U, 0x3bb642ff3d952bbaU,
  0xbd219860bb693468U, 0xbd8ca04d3d3baac9U, 0xbd9236193d36a3e7U, 0xbd6052253ce96a3bU,
  0xbd2c893a3c910e3aU, 0x3d91ed3c3cd58a44U, 0x3d03c56dbd8e6c31U, 0x3a20ae4ebd4df42bU,
  0xbd0955263dc6b293U, 0x3ded2e3b3d9a4725U, 0xbe03a14d3dad4077U, 0x3e0276763b163932U,
  0xbd37026a3d747cf2U, 0x3d6e35ab3ddb1cb2U, 0x3c58284ebcb7a9d2U, 0x3d0983a33db13dbfU,
  0x3bb63acdbcfcf57cU, 0xbd0a110bbdeda63bU, 0xbd2e1f4dbd2a3a86U, 0x396c83acbd39ff7eU,
  0xbd4b49e63e2a2526U, 0x3e8551db3d500c24U, 0xbd45f3c63c916aa8U, 0xbdb5a9eebd2b1878U,
  0xbb21517fbd3377deU, 0x3dd0a3f03daddff6U, 0x3d8d8efd3e1e78acU, 0x3d6181c93cfd4e93U,
  0xbcf802403e011aadU, 0x3d72ada03db94a5bU, 0x3d8a3fdebd4432d0U, 0xbc207c9ebd4748d5U,
  0xbdfccb6dbcafe81eU, 0x3d5c09c9bdf93fefU, 0x3e0651573e42511bU, 0x3d89cc923e126497U,
  0xbe382bc03d8a91b0U, 0xbdd366013da1de0fU, 0x3c8c88b83d2af391U, 0xbd8f97c63d8099a5U,
  0x3e38762f3df7874aU, 0x3de07abcbe315e85U, 0xbcb71a593db741b7U, 0x3d4f74173d8e06c6U,
  0x3dbcd73fbbbf15f2U, 0xbd0e8c063c77865bU, 0xbd088bdc3b17553fU, 0xbcea03093cd4e77cU,
  0xbca17f3d3c235176U, 0x3da9f5c03cc09164U, 0xbc91c43ebd9e23c6U, 0x3d15230abdcba8f9U,
  0x3d948b24bc957626U, 0x3cf1a67bbcd55f65U, 0x3c5d3e9fbc92f3e0U, 0x3c9c7a7d3d7197a2U,
  0x3dde7f0abd128475U, 0x39c97df8bd5e8025U, 0xbe10ed87be019e03U, 0xbdb15d5dbd3f6469U,
  0x3d24e8ee3b5b7440U, 0xbb658bb53d9440faU, 0xbe23a0bc3da190c1U, 0x3cce513f3d53f9dbU,
  0x3d21a804bddf15c8U, 0xbd8412eb3cce5819U, 0xbd29ae69bb8b0c16U, 0x3daace79bc886862U,
  0xbd9ac097bc881960U, 0x3e0734973daf7421U, 0xbb7a39b4bdce38bbU, 0xbb93a76a3db31fb9U,
  0x3d6318593b633432U, 0xbd538368ba9f72a5U, 0x3d96b0de3ba984e7U, 0x3b9a1343bc110cbdU,
  0xbe2305cf3d2ab5c3U, 0x3be1427d3d0497e6U, 0x3d6414bebca52d53U, 0x3dc395e9bd5ec3d0U,
  0x3c7c50283c931bd2U, 0xbc488bf53c16d6b0U, 0x3d0a3e773cc54502U, 0xbbf7774e3d4f29a4U,
  0x3dae88a23bea27eeU, 0x3e6c6cb83d085bf4U, 0x3b815d21bc72f9b0U, 0x3d7ba639bd16971eU,
  0xb93dd14c3d7d7995U, 0xbd9f95253e13e4a5U, 0x3d1d37a83d8b55a7U, 0x3dc974dfbd11f035U,
  0xbd856c39bd143b55U, 0xbdf04eb83e22ad7aU, 0xbdc78eaf3d6f5cbcU, 0x3dfc23743ce7fd4bU,
  0x3d81adb9bcc72a73U, 0xbcd0d4c53ca0253eU, 0xbc0631d93ce2ca51U, 0x3dc867213d034209U,
  0x3dc3d41f3cf8f783U, 0xbd46cb533d9ea962U, 0xbe11336e3d4bdd16U, 0x3df343333d2f1348U,
  0x3dd87ab7bd625f56U, 0xbdae5df23e013ad8U, 0x3b0a99143d0a73d7U, 0xbdcc2636bd3dc7b1U,
  0x3d9905e53cf12d7fU, 0x3d63bf3e3d09d424U, 0xbb4c73dc3d19aca6U, 0xbd711a033d2662a1U,
  0xbd4f48babcccff95U, 0x3e2b6629bc4e3784U, 0xbdb5f9333c13224aU, 0xbdaba51dbd8d42c2U,
  0x3e2cf307bc0aa2a5U, 0x3c9d11433ca9aeb7U, 0x3dafe7bf3e190c04U, 0xbda6dd3ebc07792bU,
  0xbc73e8debd6ee659U, 0x3e1d8f03bd3e16e7U, 0xbd00582abcb44d91U, 0x3d66bdcd3d20ddd7U,
  0x3d4e5eab3dc9e540U, 0x3d0bad9d3de02ac0U, 0x3e4c57453dfb6ef5U, 0x3e3056fbbc8f312eU,
  0x3e4ffb7d3d5c5e5aU, 0x3e24d0d33d60167dU, 0x3e7dfdb23d9b9e52U, 0x3dfd1ac73d8bc791U,
  0xbcbea79abc138cc9U, 0x3d937d133e8743cfU, 0x3dbe49ce3d93260dU, 0x3df13eff3de092c7U,
  0x3db7d0503e0cd850U, 0x3dd44fa63b0f5f8bU, 0x3e3f7f703d2fdec6U, 0x3d37c14f3d2f739bU,
  0xbe1671183d3a68e5U, 0xbd15eb893da7121dU, 0x3d2999713d180053U, 0x3cf8e15c3da558e9U,
  0x3dbc93213c9ed639U, 0x3cd763d53df56adbU, 0x3d6eec793d3e17fbU, 0x3d6b7bf739689190U,
  0x3e1510983dd91f89U, 0x3d5fe02f3d9f9211U, 0xbb2d52803e0f3bf5U, 0x3e5d77ce3d87b3edU,
  0x3e5242363cfca257U, 0x3d70e2ab3dd0fe72U, 0x3de66c46bd112beeU, 0xbb630d1b3d9d917eU,
  0x3e2fb1bf3d7cbaf9U, 0xbd10d7ed3c353b0bU, 0x3cf4bfb23e0be7ddU, 0x3e0705083d8b60fdU,
  0x3de0983b3d3f1deeU, 0x3df376bfbc2329fbU, 0x3e0f003dbc9e49c7U, 0xbde17f673dab7791U,
  0x3e1f3ca53d834b41U, 0x3dcdaf15bd63d19eU, 0x3da82b1c3e02defbU, 0xbc1873263dea3c4dU,
  0xbc19bd013db57d6fU, 0xbd60134d3bb95877U, 0x3db6ec45bc0a44a1U, 0xbe2184d23e4072feU,
  0x3ddf23223d0b8d37U, 0x3df4a4363b9944c7U, 0x3d88023a3dd03412U, 0xbcca72dd3d9ba38cU,
  0x3aff9e06bd6633f4U, 0x3e22c691bd1198d1U, 0xbd93be403d4d1f72U, 0xbc267c39bd53681fU,
  0x3cf40e3fbd8efdceU, 0xbccdd64fbd47e026U, 0xbb235e20be0bf0f0U, 0xb942a9613c70dccbU,
  0xbcc71b76bcc65bf8U, 0xbcb901e6bd4ee73dU, 0xbe2095adbd52e43eU, 0xbd82ef753c0c05aeU,
  0xbd34aa283ddf71d3U, 0xbd82b29ebd35a878U, 0xbd9be932bcf3b737U, 0xbd9b0758bd0612a2U,
  0xbc24da04bc8223c7U, 0xbcdb5f83bdc47548U, 0xbd22b4c83d6253c7U, 0x3a726c473dcc36adU,
  0x3d5be6dfbe0c1dbcU, 0x3dab3e8dbc2f41f3U, 0x3caad5863d8dd522U, 0xbda6e9c1bd247e75U,
  0xbdcc4a853d4ece99U, 0xbd8b7538bd3e6594U, 0xbafafd683e0810d2U, 0x3d92eb3cbe05b030U,
  0x3d22aec6be6015fdU, 0x3d23ea183d604ceaU, 0xb8c8377f3ceb543eU, 0x3ac91661bcc58882U,
  0xbdbc05ff3e0ba281U, 0x3d527058bd8da548U, 0xbc529640bda375f0U, 0x3d44640cbdb53d1eU,
  0xbcdb024abc8c0cfaU, 0x3dd2e5e6ba448f2eU, 0xbe3e23aa3e110aacU, 0x3d1663edbd5decb3U,
  0xbe8930d7bca0b61aU, 0xbbfe6810bd213291U, 0xbe1d072fbd8b272cU, 0x3d14cf6abdfb05dcU,
  0xbd23812cbd99b218U, 0xbcb1c7263d306b45U, 0xbc4087533d4ac8ecU, 0xbd1dd12abd594b70U,
  0xbde68276bd544f75U, 0xbd6de66dbd8b044eU, 0xbc858f16bd818664U, 0xbc966ccebdf32780U,
  0x3dd1daa0bda55388U, 0x3d22f6f33e5b3129U, 0xbda285bd3dc9c9f9U, 0x3d524184bd2318edU,
  0x3b468ed73cafa040U, 0x3da791a33c63a709U, 0xbdb229febc6ec68aU, 0xbc77eacc3cf22721U,
  0x3dc25aa6be07ffc0U, 0x3d4e64aa3c882b06U, 0x3d3bdff4bc2508c1U, 0xbcf6f899bd0d4f05U,
  0x3c837956bdccd228U, 0x3da916733c7bd029U, 0xbd263002bbc94dc3U, 0x3d9f5495bdf650f3U,
  0xbde615b5bcb42c1eU, 0x3d06205e3d23677eU, 0x3b88f14abd25e945U, 0x3db057a73b3b8a4bU,
  0xbd853be73d0e4d77U, 0xbaaeff0f3d8f4854U, 0xbd14300d3c35715fU, 0xbc3a38e6bc96cd7aU,
  0x3c635971bc320726U, 0xbc759de73d8af19bU, 0x3d5b3bc63dbe3175U, 0x3ccb42453e353627U,
  0x3cdba0fbbd3b4b0fU, 0x3d89dccb3c97fc34U, 0xbd898bb6bdae754eU, 0x3de8e04f3d80de9eU,
  0x3d1eb11fbd7a8857U, 0x3cb0ccae3c88e096U, 0xbca2c5b53df64e4bU, 0x3da511a73e5d9bf2U,
  0xbd5d98c83e00b2b0U, 0xbcf7f7e3bd1c585dU, 0x3d2869e4bdd011ccU, 0xbcea5c903cd788acU,
  0x3dcbc5edbdbe3702U, 0x3daaf2a73d158accU, 0x3bad8c003dc9b054U, 0x3dcf354e3c30cf69U,
  0xbd8992c2bbb07232U, 0xbd3061b9bd94b287U, 0x3d03740d3d40e9bfU, 0x3c6b18213d8165d7U,
  0x3cd9edf3bddead1fU, 0x3d1de31f3bd9eafbU, 0x3d4db5d53d5117c8U, 0xbdf188efbc8f3d42U,
  0x3d69f6b13dc08bb8U, 0x3cbe6a043cd02742U, 0xbc60d1b8bc33aca5U, 0x3dcc16523d6fbd58U,
  0x3d37704a3d45db6cU, 0x3e0282723d8dc114U, 0x3dc6d7e23d747a6dU, 0x3e1e1f553d3fff08U,
  0x3d88bdcb3e3348d3U, 0x3e09557ebdc673ecU, 0x3e01b4f1bdfa1a40U, 0x3d419377bbadeb5bU,
  0x3d29f625bd77cf46U, 0x3cc9f5d43dde4728U, 0xbd62b1bcbe03b838U, 0xbcc2f482bdc75dfaU,
  0xbc9b91b9bd95ed13U, 0xbd3ef79f3e1db838U, 0x3c72808cbcbdb242U, 0xbdad6866bd914e09U,
  0xbe434184bd99f770U, 0x3d466ce53da92be6U, 0x3da57a223d213c83U, 0x3cb3562fbd84195dU,
  0xbaa9fd6e3cc9bd54U, 0x3d265d06bd46ac15U, 0x3d3b70f0bd85c0a7U, 0x3cbbc038bded6cc3U,
  0x3e472b15be07d054U, 0x3dbf20973b13c2fbU, 0x3d9ab743bbd51f52U, 0x3c5aeb483d5ba672U,
  0x3c3c17cf3c4a1113U, 0x3d41bd1f3cc367e0U, 0x3bd78349bda3b865U, 0xbb8487cebcad0226U,
  0x3e654a4fbd477c6fU, 0xbc6633b4bd0cf227U, 0x3d95ba673b0619b5U, 0xbb5f7f283d1679a7U,
  0xbd1654d33da54515U, 0x3db6af85bd308b33U, 0xbde12156bdc3be9eU, 0xbdafbb85bc38497eU,
  0x3d19453b3cb5f5d2U, 0xbd0dd32bbe25d27cU, 0x3dbaac223ddccbf4U, 0xbdb357d1bdc6a101U,
  0x3da09dc23cb93d5fU, 0x3d7ed2e7bd482781U, 0xbd8db34bbdf516d3U, 0xbd8cf276bc9821d5U,
  0x3d97aa72bcc5cb54U, 0xbafa9be8bce17efaU, 0xbcab815f3e040fd1U, 0x3d3f05cb3b21b8f8U,
  0x3d5a90d03d5a8643U, 0x3c370a653d82b6d8U, 0x3d3c59b1be1d2996U, 0xbde53947bd12b98dU,
  0xbc5a439d3c04a103U, 0x3db91932bd3ee395U, 0x3deae7b33e1dfd77U, 0x3e0257bebd0b4279U,
  0x3d9bd8e13da525daU, 0x3e53ed823d8502ccU, 0x3cf305423dd374dbU, 0x3ca5c9e93df0ff79U,
  0xbd23d910bd667d59U, 0x3ccc69f23d7e8592U, 0x3d860e743daf59ecU, 0x3d747ed9bc34f7ccU,
  0x3b0e95e8bd9ceccfU, 0xbd8311b03e273813U, 0x3cdd6e5dbd1ff492U, 0xbd20b2d43d19bdd6U,
  0xbe8127acbd82a8b1U, 0x3e23a78b3c9a2a33U, 0x3d698a82bc4ecf59U, 0x3d8bca35bd83ec68U,
  0x3d9eebedbcbbe377U, 0x3d8ed9873dd951a0U, 0x3c568a323d9e765aU, 0x3e2d2dcd3dbb8ba1U,
  0xbcbfb2d43cb5daf2U, 0x3bb9d7523c7fa88aU, 0xbca465b23da78b8fU, 0x3d981350bbccafa9U,
  0xbd98f0a23d129537U, 0xbdacfb26be4183ceU, 0x3dfa35e13c36ef6bU, 0x3d5837e93db4e776U,
  0x3e767e57bd89f66aU, 0x3d9cdaacbe0160b7U, 0x3b321e78bdb6e4b2U, 0xbd71c4cd3ded6b70U,
  0xbe3de0a13db0aedeU, 0xbd47f529bd8d2df9U, 0x3db62b14bd911fefU, 0x3c765b44bbe80e2eU,
  0xbd70c7b43cd84a03U, 0xbe058d3e3e333cb0U, 0xbd709cd23dc65857U, 0x3d7620d8bcbe76f7U,
  0x3e52bfebbd730069U, 0xbd3d328fbd0a2062U, 0xbd8979b6bd518f83U, 0xbd16d3e83d0c2bf6U,
  0xba712f603d6a8a08U, 0x3bfa2ae13e1ed29cU, 0x3da304ed3d914f94U, 0x3d8b497fbd143eedU,
  0x3bbd4a48bde95384U, 0x3e05b506bcf276efU, 0x3d9f26c13d3f0742U, 0xba268f423da4c056U,
  0xbd0882843d2d007eU, 0x3ddb7180bd0bb305U, 0x3e2b83e23dd9bf92U, 0x3e1a8f4fbd22769aU,
  0x3ad999443dae8b63U, 0x3df0803cbd0d9760U, 0x3d304d6d3dfd59f4U, 0x3e10ea683e223fbcU,
  0xbdae99153d31b3e6U, 0x3be36ff13d079a13U, 0x3d5ff9193e0ffff3U, 0x3d3cd458bca4cf24U,
  0x3d96f81e3dc3cf17U, 0x3db65c653e362c70U, 0xbcc47f41bd7a08c0U, 0x3dad9a53bbade335U,
  0xbe5e99843cc693b9U, 0xbdee9e7a3d11f1d6U, 0x3c9c28893b7488abU, 0x3e37296c3d7be3a5U,
  0x3d915796bd582200U, 0xbd0596b03c958f6dU, 0xbd8ffdbcbe289362U, 0xbd5aff423ce74940U,
  0xbde8df703dd04e4dU, 0xbd323a4d3dd56d84U, 0xbdd59e793d83eac5U, 0x3e0a73573e36663eU,
  0x3d44a185bcf1d8b9U, 0xbdd71aa43b2a7b70U, 0x3ca504993d0c9adcU, 0x3d8acbca3d36e804U,
  0xbca026d63cc5fef4U, 0x3d6b634d3e0fef15U, 0x3cb8988c3c95e88aU, 0x3dbeac783ca4e407U,
  0xbce16cef3d962889U, 0xbdbc55c33e19e82cU, 0xba3fe4713d45febaU, 0x3dccd26fbc09a5baU,
  0x3c18d4b9bdbdb7f4U, 0x3dc08d753c39a364U, 0x3d2b918f3d56129aU, 0x3d70a6b33d287052U,
  0xbce95a6e3dd2620fU, 0x3c1ef72fbc67d450U, 0xbd4d2b3e3b9c9453U, 0x3daa94a3bcf44f89U,
  0x3c63e43e3b84a451U, 0xbbdd6859bd9abce9U, 0x3b19e35c3da9932aU, 0x3d43fcf7bd81daa5U,
  0x3df198b33d2542fbU, 0x3ddeecb73c9cf15aU, 0x3d8581683ddf7ee3U, 0xbad954103d4baaebU,
  0xbc87295c3dc6b19fU, 0x3ce5ef703c33a40dU, 0x3dc3aef0bdac5d5aU, 0xbd3ba1b43d1531edU,
  0x3d8bae093d4f8af6U, 0x3e0cd35abcc178d1U, 0xbd4be6913d59a96cU, 0x3e0bafafbd464200U,
  0x3e14a3ca3d68c54dU, 0xbdbdeeac3bafbc49U, 0x3dd0416d3e202d2eU, 0x3da76496bb92b810U,
  0x3c75349e3d831193U, 0x3ac2594d3da9fd84U, 0x3de657f03d25970cU, 0xbcaaebd9bcf71c3fU,
  0xbe36648fbb25813fU, 0xbe9578cd3d8b86f9U, 0x3d970e513d970a7aU, 0x3dbdd127bd0ad61aU,
  0x3dc618ae3ce71f63U, 0x3d3fdd4cbe11a26aU, 0xbdb16dedbdb5a12dU, 0xbdc8fa983d309e9dU,
  0x3d1c98d5bcc4ed4fU, 0xbd8c0da0bd76efdbU, 0xbc40a28c3da16506U, 0x3daf45883d252e0fU,
  0x3cac93be3c092b49U, 0x3da315df3d034e82U, 0x3dcee90abdde8a73U, 0xbdf0d25bbd611fb4U,
  0xbdbae03e3c803e3bU, 0x3ca737c23ca21a86U, 0x3d04bbfcbc10be7aU, 0x3e03a47f3b11550eU,
  0xbdcd1d24bcd0039dU, 0xbcb8c892bb8dc2ecU, 0x3d8bb2483d10f581U, 0x3d9a153abaf2f1ffU,
  0x3d4711603da3f866U, 0x3d25abed3d09950dU, 0x3c7f03d1bb191c28U, 0x3da4239ebc15454cU,
  0xbda4acd23d49c33aU, 0x3d52cc71bcbe87a6U, 0x3cfd37183d33858bU, 0x3ce70f393c82c98bU,
  0x3cffca343d9a51d5U, 0x3df2bc323c136076U, 0x3d792657bda1cb92U, 0xbc118eedbd030b93U,
  0x3e0ecf5cbc9ae843U, 0x3dc312513c2f2f21U, 0x3cf33ba83de03623U, 0x3e4756053da10fb1U,
  0x3d9488e73d4881acU, 0x3cd650a53cff1f6aU, 0xbcc773cb3d60e973U, 0x3d85dbb2bd17547cU,
  0x3b379868bbb1a16aU, 0xbdc798103c90b334U, 0xbc0058663d5d495fU, 0x3d625b84bc137a28U,
  0x3d8003b2bcd4f7aaU, 0x3d896d80be2422f9U, 0xbdee4f5bbc44488aU, 0xbd8eb7e23d8ce40bU,
  0xbd42fcddbc988650U, 0xbd5ec738bd7347a3U, 0xbe356c403da9f2f0U, 0x3cc18002bcf69d5dU,
  0x3de03636bc563931U, 0x3cce82efbeacca67U, 0x3c0d98ea3ca9273dU, 0xbd52deafbd96c583U,
  0xbe2160babc1f9464U, 0x3bddeeb73d90fcdcU, 0xbe85aa7ebce90628U, 0x3d8ce8db3d53fc41U,
  0xbc00b8e5bca3c04eU, 0xbd7ffa6cbe9a2929U, 0xbd3ca1d5be305a0fU, 0xbe6e8f1abb80f1a1U,
  0xbe4187963d99f537U, 0x3d20cda2be2716d7U, 0xbd98b5373d7ed32eU, 0x3cbc94913d233a26U,
  0xbe9e81c43cb3e26fU, 0xbd600bb3bd7dcf33U, 0x3e05d205bc066a7dU, 0xbe06fd263d617c9eU,
  0xbe52d7ac3d3ac3d6U, 0xbd3ba2d2bcb32770U, 0x3e07a95fba18e74cU, 0xbcb5f9e53d2cb495U,
  0xbe0f03fcbd2376f6U, 0x3c761a513d43dbe4U, 0xbc3eba873b268327U, 0xbe5cb5793d5f7a11U,
  0xbe8281863cfa7c37U, 0xbc3fbc1ebd799718U, 0x3e21b145bc6520b9U, 0x3ce8a6b23d0fcb19U,
  0xbdac36dfbd10cc98U, 0xbd06869b3d82790eU, 0x3d7a83843d3ab7e0U, 0x3d94401dbd363fa2U,
  0x3c94655d3d4ad79aU, 0xbd32baafbd80ff3aU, 0xbd0bf9853c9c8dd3U, 0x3d41c16bbc9c2596U,
  0xbce7cb59bc8a4163U, 0xbd2de85fbd08e2a8U, 0x3d0020743dbda863U, 0x3d038a3abbe985a0U,
  0xbca52c3c3c5469b2U, 0x3e0dce7e3caad621U, 0x3d02e1953e20be19U, 0x3d7fb56b3e0d0796U,
  0xbdc1439dbbbf0209U, 0xbd2765593c16f58aU, 0xbd502b56bd2ac276U, 0x3dde81023a1f8e44U,
  0xbc0526cb3db779b6U, 0xbcc90eda3b60b952U, 0x3dd6e114bd485471U, 0xbc29ec24bc45cc51U,
  0x3cddb8f13d95c3e9U, 0xbcace9033d417a75U, 0x3dc4366ebd0829b5U, 0xbbfc449f3dbe41ecU,
  0x3c1cfcdabb40689fU, 0x3e0f40113d8cc7f6U, 0x3da9e8a2bda36a8dU, 0x3cfa726ebd0e49c6U,
  0xbcb9d141bd0975d6U, 0x3d6533493dded786U, 0x3e0eebf23ca55ef6U, 0x3d3fff993dcafd7bU,
  0xb9963b1c3d27857eU, 0x3dd1cc613cc38ef3U, 0x3d451fed3ceeca5eU, 0x3d55ef4b3d33e8f5U,
  0xbd873d5dbe147b13U, 0x3ccc5c5d3cbcddfbU, 0x3daebdb93da5f8d2U, 0x3cf2aad4bc3a86c4U,
  0x3e0f3981bc27dcf2U, 0x3e07b6cd3c9e2d3cU, 0x3da5ea7a3c942325U, 0xbbd39354bd4ca197U,
  0x3dd551923ca51d91U, 0x3df1cd76bc6d0901U, 0x3db30883bc781bcaU, 0x3e3caf8d3d7a6d8fU,
  0x3cc270e3bcd4d12bU, 0xbd496a6fbd2a0cacU, 0x3e85e1e43c56e33aU, 0x3d74a44c3daa09baU,
  0x3db49cde3e3869b0U, 0x3d4229e1bdd7d29aU, 0x3c2bf6f33d099787U, 0x3e0029293e30b729U,
  0xbe598d253d778a43U, 0xbca28a0f3e7f7b30U, 0x3d908810bc64f58dU, 0x3e0247353e62f3a2U,
  0x3d610c3d3c28a860U, 0xbc93fb893e368853U, 0x3d58de453d68ceccU, 0x3e21bfad3cf63521U,
  0xbd76fb883e27c2bfU, 0xbd0436adbc9d65aeU, 0xbb77ccc1bd8dafeeU, 0x3c5b4a7abd01b06bU,
  0xbddea0b63c0bc99fU, 0xbd571294bdaca7f2U, 0xbd294c1a3cf10d2bU, 0x3da561ba3d162321U,
  0xbcec4db43d8034d3U, 0xbd2163c7bdb45be6U, 0xbe2688dfbb651ecdU, 0xbdcdfe3eba95b24dU,
  0xbe116358bb77efecU, 0xbd8a2fafbd2e9f06U, 0x3d4009033dae7025U, 0x3cc74b8fbcb7da95U,
  0xbd15e85abc44b9d9U, 0x3c6feb30be50cea2U, 0xbd07922b3c94b326U, 0x3d82d5503d2e8ee9U,
  0xbd1eb16ebdc7e5c2U, 0xbc9b8212bcc53088U, 0x3d423e863d81d9b2U, 0xbe05a1a6be1616f2U,
  0x3d5f80bd3d041a1eU, 0x3e4069ddbe4b7357U, 0x3dc79e033d8e8150U, 0xbd14609a3c4508e2U,
  0xbd6df2b0bd0f57a4U, 0xbda6be25bd6128bbU, 0x3d03a3633d7406f6U, 0xbcadeb08bdca55f3U,
  0x3c1241fa3c82c368U, 0xbc08fb4abdc380eeU, 0x3d9669373d8cecb2U, 0x3d9ec7573dcff362U,
  0xbd5891173e20aacbU, 0x3d1e79f2bd5dc27bU, 0x3d357cd53bcb95e9U, 0xbd3bcc8f3d8987c7U,
  0x3c6269803d6fb746U, 0xbc914b78bc803c32U, 0x3dbab8233ad26a89U, 0xbddd08383dd5f94eU,
  0x3d545bbe3e369eccU, 0x3d17a6aa3e18f92eU, 0x3d6bbe52bddb752cU, 0xbcfd060ebabe663eU,
  0x3d21b317bc69d54eU, 0xbdbf0ee63db15858U, 0x3cb938133e1a170dU, 0xbe061a633dce0979U,
  0xbc7b79b23d8f190cU, 0xbdd4cec03e141d87U, 0x3d47f9a23d0ee780U, 0xbcb364fbbcf55a56U,
  0x3df8e26a3cfecbddU, 0x3dd427a13ce6d875U, 0x3d56ce373bc96848U, 0xbdbc571f3cda1355U,
  0xbd801da93aab02bcU, 0xbdc54932be796dccU, 0x3d2546e4bd4c3c40U, 0x3d766363bd703645U,
  0xbe13bbf03d84ea8aU, 0x3d81159bbd9c4845U, 0x3ca0cbccbcf8d040U, 0xbd6e6e103d839bdfU,
  0x3ab518a73dcecc09U, 0xbd927a27bdc40d2aU, 0x3d86b67dbdde7511U, 0xbdcda917bcdf7251U,
  0xbdc4e1d9bd3047b8U, 0x3d359987be60f3f3U, 0xbce0eaa23e2652eaU, 0xbe000bef3df0444bU,
  0xbea0ba59bd2a24a9U, 0xbd98fed63c0f05d9U, 0x3dd52a1abced7571U, 0xbd5b242ebd3328feU,
  0x3d1c57023ddf95a2U, 0x3df82050be21a9b1U, 0x3d8416f03d93d248U, 0x3d3f4a013d87fb6eU,
  0x3e35a024bcbdc0ebU, 0x3e196602bd6412caU, 0x3c1e9eb43d2af0a3U, 0xbd33d32ebdf5bccbU,
  0xbe11d64bbd0a7738U, 0x3d1b095ebe4cdde9U, 0x3e1213f8bd2c363cU, 0xbc3da0c03d5189c8U,
  0xbc8ef9ecbb20e548U, 0x3db470383c7101f4U, 0xbd42527dbe291bb8U, 0xbd3e1541bbf02295U,
  0xbe254bb53e03656dU, 0xbe128339be0d568aU, 0x3e12904f3daba19cU, 0x3d91d80f3dbb6bf0U,
  0xbd735d863e311231U, 0xbc0db8523e8e0a34U, 0x398ff067bdb133e1U, 0xbd65b6103ca6a474U,
  0x3d637b1e3d955a18U, 0xbda438d3bd075a81U, 0xbccb73cd3dfcb783U, 0x3e35e1de3d85a22cU,
  0xbe183c203debe72eU, 0xbe3ee6a03dbbf6d0U, 0x3dd576283dbe5792U, 0x3bce719ebe0bc1c6U,
  0x3d9fb44dbcc9292eU, 0x3d9aacba3c942085U, 0x3d8c3d603ac0d236U, 0xbd7a8a22bc82f04cU,
  0x3dc7b2183dcf6fb0U, 0x3e79bd51bc434020U, 0xbe2653afbd515331U, 0xbd785f3abc17b653U,
  0xbdf168b6b83408e8U, 0xbda81cfe3d89e39aU, 0xbdf68ff13e0d3a21U, 0xbe03ca173cb4c663U,
  0x3e8683a93e2b8668U, 0x3e493e25bd2de8e6U, 0x3da751c2be1c64a9U, 0xbe36b773bd8383bcU,
  0xbba930763c0e8b13U, 0x3d3a0c22bdd25f07U, 0x3dade2e83e3a2c97U, 0x3d37d461bd7cdb78U,
  0xbe0186c5bd3ddd35U, 0xbd95b8e73ca26e67U, 0x3dbf770bbd2831ccU, 0x3cdd20f3be274f74U,
  0x3e56cf043d061380U, 0x3e30b69fbe96aab9U, 0xbcadfd5f3e320dd9U, 0x3de56b383de44022U,
  0x3df95ef03c20b39cU, 0x3d95e5fcbe0f675fU, 0x3dea54eb3d0d9d1dU, 0x3de998cbbd78b9e8U,
  0xbca06a793d6224f2U, 0x3e074c7abe505c9aU, 0xbb562a263d8828b1U, 0xbc993c603d10d8dcU,
  0x3dd25080bc737afcU, 0x3e41c558bebe0fe4U, 0x3dfcd51abe80138eU, 0xbe574d97bd5985e6U,
  0xbeaea3063dfbdc3cU, 0xbc7cec53bdd4d81eU, 0xbc632caf3d908a81U, 0x3c9ad101bdfdc316U,
  0x3cfd80cebe1e4edcU, 0x3dc55069bdc9efacU, 0x3d85b41abe0b9da5U, 0xbe8c907cbdd805f2U,
  0xbe195ed23bf21c3cU, 0x3c0bbf35bd359e0aU, 0xbd47b5a13e0b29a0U, 0x3da351efbe610e0bU,
  0xbdd9a247be82799bU, 0x3e5261bbbd8b6b0aU, 0xbe1dbc3bbc50dec5U, 0xbd7e219ebdb05b5dU,
  0xbd529fa53dc93b8bU, 0x3e46b158be07b109U, 0xbe0d49663e4059c5U, 0x3e9817c2be2ca09bU,
  0x3ce6348abd2a1c5dU, 0x3e600804bb0534daU, 0x3dc63ff1bd8f834bU, 0xbc0b29f5bda1d627U,
  0xbd3b2129bc918ec4U, 0x3db3aace3bff4963U, 0x3decb667bccc66ecU, 0x3d6480013e0fa1b7U,
  0x3e7505813d1c06c6U, 0x3e717451bdc9afbdU, 0x3da18c0fbd817835U, 0xbd411723bbb65920U,
  0xbdbf5723bcd2d20aU, 0x3c5218c0be8e000cU, 0x3ddce7d53deb160dU, 0x3dac2a19bcb68b31U,
  0x3db09cd73d90a0c0U, 0x3d3b0abdbc8a9db4U, 0xbdaa2b64bd939993U, 0xbdc83dc4be11ee93U,
  0xbdbb2eef3d50244bU, 0x3bf6b621be835293U, 0x3a3fdef53e2838efU, 0x3dc1cba83d8cc25dU,
  0xbd52de07bcdfdccfU, 0x3d5a867dbb8c1a50U, 0x3d72adc9bb633c70U, 0xbd9082f6be30e1b4U,
  0xbe335b753e148a00U, 0x3e5835d6be672e53U, 0xbce202663c3f4d24U, 0x3d41ea44bd48d410U,
  0x3e41a7fabde31a02U, 0x3d65a640be1ac75aU, 0xbb83d03fbe0455a0U, 0x38d8dd28bc4fe415U,
  0xbe1139e93df3a9abU, 0x3df2f6d0bc1c09f4U, 0xbd67d257bdd0587cU, 0x3c953c20bd5ebc65U,
  0x3df92218bde76691U, 0xbd40f402be031796U, 0xbd516272bd61dab2U, 0xbdcf55293d70e96eU,
  0xbdda5d9c3a2e10adU, 0xbcaaa7e33d2457a5U, 0xbdeaa73dbe7a200eU, 0xbde10895be1e94c1U,
  0x3ccae893bd51da72U, 0x3c30e685be2eb7d5U, 0xbd6c82893da54ac0U, 0xbe153a033df8a8afU,
  0xbd4ab3fabdb85a26U, 0xbdd2962bbd2cd459U, 0xbdd62462be27c503U, 0xbe5476e1be18457cU,
  0xbd24bc3b3debf46bU, 0x3d009587bcd44de2U, 0x3b9c26303c57db40U, 0xbd9a25753e0de718U,
  0x3cca45943cb2b06bU, 0x3c81adbebca6b5beU, 0x3d70aa583d439318U, 0x3da99d0e3c2503c9U,
  0x3e44c0f13d82670fU, 0x3e35bd9e3d40bb06U, 0x3d2d37b33bf8decfU, 0xbca3bdd53ddf06a4U,
  0x3c5b4fb13dcf4ea1U, 0x3d84db71be7a36a9U, 0xbc5539b93d1333a9U, 0x3cba31033dc26f4aU,
  0xbdb3a7da3d4f6b63U, 0x3e10e8b53e231bb5U, 0xbd3d7ee7be25baa5U, 0xbd6c39783c638386U,
  0xbd92e222bba348d2U, 0x3d753453be591e39U, 0x3d0934a33cf2d4f7U, 0x3d4b1adf3c0386bfU,
  0xbe36ad7d3d8d1b30U, 0x3d3f2a4f3d5b1c5eU, 0x3d4f6329bdd78185U, 0xbbb2a85abd0a8262U,
  0x3d0499e8bc834687U, 0x3cb28107be1e902fU, 0xbc1aab143de08215U, 0x3e1f207d3d144143U,
  0xbdc2d7673db2bde8U, 0xbd770f9e3e7407d6U, 0x3d949c1dbdc5c539U, 0x3d98c1863de61d60U,
  0x3c83eac13d0dd81cU, 0xbd9497763cc53e9bU, 0xbc97a2813d52bbe9U, 0x3e438ac33dfe2d2dU,
  0x3d1463523d81040eU, 0xbe4052773df2255fU, 0x3c4b6a093dcf68a9U, 0x3e6d5d9f3bc17b3fU,
  0x3e4896e8bd43f2a6U, 0xbe2c615e3cd3dc2bU, 0xbdaac1fb3d4a6ed6U, 0xbdb0ca593d720eadU,
  0x3e38167a3db60bafU, 0xbd1f00553dfc4ad1U, 0x3dc7e9293d09a7b5U, 0xbdbabb943dd90eacU,
  0xbcc15031bda2e13fU, 0xbdbfc9d93db737ccU, 0x3da8c86cbd75d66eU, 0xbe7427e13dd29204U,
  0x3cbcfcdebd29e2e5U, 0x3c7adbe2bdb5ca74U, 0x3d68aac93d23b8d0U, 0x3c5469913d3d0edbU,
  0x3cec90e8ba4d7e33U, 0x3d9f30bbbbe93b6dU, 0xbb17fd1bbe2b8f70U, 0xbc194d353cf46c98U,
  0x3b3c27b5bc993e24U, 0x3e09a7893d8bede0U, 0x3d64f5c4bd09b015U, 0x3c869a5c3d0a293eU,
  0xbd8437a83cb573f8U, 0x3d0ee7afbde22d1bU, 0x3d4df179bcb061dfU, 0xbdb514b7bc4ea3bbU,
  0xbe731e3d3d03ff89U, 0xbbe98029bdb01a49U, 0x3dd4c424bcf471bfU, 0x3d87141fbcb54c8bU,
  0x3d89af8c3d43605dU, 0x3dec2839bed06696U, 0x3e850b423d8e3369U, 0x3db880d33c86d59cU,
  0xbf0301d53c2e4c60U, 0x3d99e7253c350b63U, 0x3d874d45bdf36325U, 0x3e3979923d9c539fU,
  0x3e0d5dd33d08e95aU, 0xbdd249403b8c4560U, 0x3e78a5e83d801244U, 0x3d00732b3c6c6080U,
  0xbea8b2db3d3a30e4U, 0x3d59266d3e047705U, 0xbd9cd82abd946664U, 0x3e5feac13e18f145U,
  0x3daa61273cd348baU, 0xbe0f0bf0bd5d56abU, 0x3dcef56b3db6bcdfU, 0x3d8585e73d3441c3U,
  0xbe11eaaa3e1131a0U, 0x3d716270bd4abadfU, 0xbe127ae3b9945f84U, 0x3e13c6f83d75db2dU,
  0x3d58e938bcc9a1e7U, 0xbc0c0dda3d5b5f6dU, 0x3e06bb413d16600bU, 0xbe00f4973de57eceU,
  0x3d628c723d5cfc07U, 0xbc8a5da93d4ca47bU, 0xba756ad8bcac8d8bU, 0xbd26cc47bcc8bae4U,
  0xbca385cc3d783922U, 0x3e0b146b3d3c4ffaU, 0x3d833b783d6c0969U, 0xbda17880bd60f615U,
  0x397d8841bd9572e6U, 0xbdd512f43cb30c13U, 0x3bf797a4bdb76d8dU, 0x3d8de8aebcaf441fU,
  0xbcefa28a3d11d1eeU, 0xbcf349c63d8500d8U, 0xbda248f3bdb083faU, 0xbcbb9806bce68126U,
  0x3d5aedf1bcf1dc9cU, 0x3ce0fa42bc8df5d9U, 0x3cedf7b0bd2f4102U, 0x3ab39e9d3d2f26e5U,
  0xbd97a7b53dd84c8bU, 0xbe1e21a5bd59832cU, 0xbdc5e9353ccae2b1U, 0x3da4a6ec3d649c57U,
  0x3de2cc8e3d4712e2U, 0x3c9250b73c26d3b1U, 0x3d11abf93e2631f3U, 0x3e2e721abcdfe19eU,
  0x3d08e7eb3e07cb5dU, 0xbc57eb1c3e1fa636U, 0xbd65e479be136867U, 0x3d4eef1cbe102fc0U,
  0x3e3758213cba7e0bU, 0x3db719fe3d550c70U, 0xbe21c270bc074063U, 0x3d82fe683d7aed42U,
  0x3b8b978e3e41c94fU, 0xbbb37fab3ea86caeU, 0xbd951bdc3de03b0cU, 0x3d0c18f2bd60e2e9U,
  0x3c884919bd544850U, 0xbaea810fbcc09ee0U, 0xbc8f8afebd96c527U, 0xbc00721bbd9e06e7U,
  0x3bddd10a3d02e414U, 0xbd145114bd41b221U, 0xbe8ed8c03d0067f5U, 0x3d0357c33c8eb659U,
  0xbd013a413cc8fce9U, 0xbe250c61bdf20415U, 0xbd9bdcc4bd7ed67aU, 0xbd8a76a4bd68709fU,
  0xbbf283b6bd800f12U, 0x3d42554d3b66a7aaU, 0xbd277638bd975d13U, 0xbd9b94943d8c2c6aU,
  0x3d0be4d9bd9e6993U, 0xbe035bae3d99878aU, 0x3d2539afbc8df073U, 0xbd36e9bcbd5b676cU,
  0x3a96ef36bd9d98b3U, 0x3d0aad69bde002b0U, 0xbd86c7433d6c8736U, 0xbd60a1813d912cfbU,
  0xbd9451b93cdaa8f9U, 0x3ce0a8143e1e87b8U, 0x3dfcae133d58c0f6U, 0x3d387b3fbda8cc91U,
  0x3e004aaf3cfe0bd6U, 0x3d0a1957bdc5c655U, 0x3dd9c2c53c6c4d3aU, 0x3e174b2fbd285f3dU,
  0x3d631e1fbe81b404U, 0x3d9048c43c38fb2fU, 0x3c8ff274bde15c7fU, 0x3da2b0803d86a47cU,
  0x3da0806d3c6ead1dU, 0xbd4f40463d02acc6U, 0x3a19cdc7bec83231U, 0x3d8d30b4bdaab178U,
  0x3e495b69bd73add2U, 0x3c671c5b3d21a321U, 0x3c1074213e5fade9U, 0x3d27666d3e27f868U,
  0x3d85936ebe5abf85U, 0x3d0aa8453e95d44cU, 0xbc804b10bedbccbfU, 0xbdaf9ef6bda9dd8cU,
  0x3df6f95dbe5b68ffU, 0xbce574853e01108aU, 0xbd23375b3e3855ceU, 0x3d832cf43e154c47U,
  0x3e4997cdbea77853U, 0xbe36b4ec3d1453ffU, 0x3d5f10b4be7ea8f0U, 0xbda8c07dbe300b7dU,
  0x3c7f143bbe407aa0U, 0x3d49b750bdeffe47U, 0xbd9115dd3db236b1U, 0xbc7f0a0c3d09f918U,
  0xbc7419c7be21ed22U, 0x3af0c8cf3c9087aaU, 0xbdc81243be9485e3U, 0xbdc69014bc9c1d3cU,
  0xbd9706acbe14f145U, 0xbd953875bdb79c66U, 0xbe2a33aabd314aabU, 0xbcc0ff04bdbd8f29U,
  0x3a9aae8bbdd936f8U, 0xbe111af9bdb55c28U, 0xbcdfd835bdedeb20U, 0xbdadf69dbd4feaeaU,
  0xbd0b92b53c12a968U, 0xbe199333bc792f1dU, 0xbdac85e1bcb708ceU, 0xbd0fd0d3bdd3765fU,
  0xbdcc6e0b3c82cdcbU, 0xbdab6a1abb5a19e3U, 0xbd31c36ebdf3a2b9U, 0xbc9945483d8ff5ccU,
  0xbe1dc589bdc0c971U, 0xbd9a67d3bc99ff7bU, 0xbdfe798d3ac9f1d8U, 0x3c8c4f61bce2cd6eU,
  0x3c7c2af43cfd084bU, 0xbe32eff63a8e8823U, 0xbd892e4dbcdaa35bU, 0xbdb2d04b3bfadf5dU,
  0xbd2ed8fabd9a49d6U, 0xbd9ec1503b295d0bU, 0xbdc92741bd8b1a45U, 0xbc4d9dd6bd317312U,
  0xbdacff023d0b6f30U, 0x3d8c43d73d025853U, 0xbd994b83be76c29fU, 0xbe39f905bd9f8d1fU,
  0x3e08207cbe34465eU, 0x3d9293e33cd794dbU, 0x3d0ce0ddbc579fcbU, 0xbdb920223cccfc5cU,
  0x3d5fd05cbc805af3U, 0x3dce0bb83df9525fU, 0xbdafae2abe637610U, 0xbd3ee32cbe29114eU,
  0x3e01ac2fbe0255f0U, 0x3d00ac27bda6f7a0U, 0xbe3292183e33e270U, 0x3e08d51ebd6cef12U,
  0x3dfcdcb1be04c01aU, 0xbe02c1793d943e14U, 0xbdb4ca6cbe14a3e6U, 0xbbda1d8fbe0244bfU,
  0x3e1e3fb9be2c17d5U, 0xbd1a6d11be8bcd89U, 0xbde90a4a3dd2b00cU, 0xbdc0079a3bc51b37U,
  0x3d23ded8be81b341U, 0xbdbcdb72391deaefU, 0xbe242fabbde6f194U, 0xbc9dca8fbe3e3c8bU,
  0xbdfdd3fbbd91e4a4U, 0xbd5ff104bdaed70aU, 0xbe01130c3c8552c0U, 0xbd8632523dd00e5fU,
  0x3cc41a6abc000e8fU, 0xbd1da57b3c88f71eU, 0x3cc4e870bd73d088U, 0xbd4645d13c218b04U,
  0x3c8539f8bd800c22U, 0xbdbd58ef3d2ec9d4U, 0xbda3d6f0bc031e85U, 0x3c3659c7bddd4547U,
  0xbcc93facbd5c06a3U, 0xbd9e334cbd6f4749U, 0x3c6f4274bd0021e7U, 0xbda7cd4cbbb434e8U,
  0xbd3b9dc9be110376U, 0x3cac1aa4bc886aeeU, 0xbdbdb599bd5baff1U, 0xbe024fd2bddefcefU,
  0x3c5a75633dabc228U, 0xbd9bc8dd3dcde573U, 0x3cd7800bbd940cbfU, 0xbe0105f93ca4002dU,
  0x3de26427bdb38f10U, 0xbcecf7a9bd0745d5U, 0x3d717117bd96826eU, 0xbda811c7be9645aaU,
  0x3cf6d70c3de5f563U, 0x3d42ad18bd9f15e8U, 0x3bcf00763c59de7dU, 0xbe4e6e593d1b72dcU,
  0x3cdc785c3d20f6c6U, 0x3d63a3c7be13dc98U, 0x3db44e7b3d002e65U, 0xbdb8bb23bde64649U,
  0x3d4922ae3d81ee3aU, 0x3db5e4d5bdc41c79U, 0x3d486f39bd4c2284U, 0xbdf701803d0145b3U,
  0x3e26346f3d739d27U, 0xbc14d567be3266daU, 0x3dd3f8e9bcbc17f6U, 0xbd5077ae3d6d09d6U,
  0xbc82a62fbd36abe7U, 0x3d9659a2bd07678fU, 0x3db5ad0a3e3d8629U, 0xbdab49363e03ee80U,
  0x3db85e5c3daa4dfbU, 0xbe3da1b9bda86cd1U, 0x3d1e16173de09db2U, 0xbc46f5a93ddda3f2U,
  0x3e340070bdc231a7U, 0xbb917d123d89e6f5U, 0xbdecf482be4bdd86U, 0xbea3f5753cf648dcU,
  0xbc9e9835bc476ac8U, 0xbdf7a935bd77fbebU, 0xbca4a25dbd385b50U, 0xbd2bb99bbd34a097U,
  0x3cbd5f9abe89dc5aU, 0x3c16fb18bd281ff3U, 0x3d3abdb7bce37f0aU, 0xbea6cf34bc565158U,
  0xbe30898cbd894286U, 0xbe379fa0bdaf36dbU, 0xbe10db38bd0cdbbbU, 0xbd2d7775be83a249U,
  0x3d97ce26be0e09faU, 0x3cf78c78be8926c6U, 0xbdd3789d3d0db83aU, 0xbe881a2dbc1089e9U,
  0x3e16540c3d976a01U, 0x3c4846953d41de9bU, 0x3ba8484ebd82bafdU, 0xbde47e87bd53ca4aU,
  0xbc888d55bd3b9411U, 0xbd3988a63db15a6dU, 0xbda5f4013d172fc9U, 0xbdb75c82bd928925U,
  0x3d4c673c3dd17da6U, 0xbcaaa904bd271d87U, 0xbbdc58b9be1a6f03U, 0xbd26805d3c91b615U,
  0x3d39e3be3d7fced1U, 0x3e11d5d0be8156baU, 0xbd75e5363dfd4623U, 0xbe142a323d50517dU,
  0x3dc2b2a83daf2f86U, 0xbcbde8a4be23f7f1U, 0x3dc996c33d56f539U, 0xbe91af803c3a1641U,
  0xbd3da6a73cd7048fU, 0x3c994436bdf1c5e3U, 0xbde7861abbdf7dceU, 0xbddcece5bd1dd085U,
  0x3e7669fb3d2c2902U, 0xbc38cb9bbda95f35U, 0x3cfc7da1bda0b8deU, 0xbd881491bdfbddabU,
  0x3b0e6de1bbb8c7e9U, 0x3e482e88bd5b17d3U, 0xbcd6bbe73e2122d3U, 0xbe03d9fabd795d78U,
  0x3d3892613b48553fU, 0xbe91a9423e087dc9U, 0x3d9022433de32d65U, 0xbe2cf50a3d152f4aU,
  0xb82139833b80cc06U, 0x3e25a8053dca8278U, 0xbe87bfccbe04d5e9U, 0xbc55e24ebe88e9fbU,
  0xbd0be3e4bea04ee8U, 0xbe433042bd500a88U, 0xbea423eabe26b090U, 0xbe42d729ba6062d9U,
  0xbda711b6bda6177eU, 0xbdf0dccf3cf93cf0U, 0xbe59192dbd8a326eU, 0xbda70be2beb89900U,
  0xbe86803dbe9c3d40U, 0xbe37d718be8cbf6fU, 0xbe35b6b43d6eb43cU, 0xbd360160beacc746U,
  0x3d97cfa3bdccca75U, 0xbd92479dbe49e1ccU, 0xbe6ef259bdf2cba5U, 0xbe0191f2be713e8dU,
  0x3da69644baad4f91U, 0xbdb8a2d13d3e7d21U, 0x3d84e4abbd58a483U, 0x3dc4ee49bd80a17cU,
  0x3d70c44d3c8abdbbU, 0x3dae9e00bd9f2da0U, 0x3da16ffb3c689d1cU, 0x3d29c3f73dff50f5U,
  0x3c6090a6bd4605d6U, 0xbd4e4818be2b6558U, 0xbd88e463bdc3f110U, 0xbdf736603db8b320U,
  0xbd839ee13cbd8b70U, 0xbc6069653dee02f9U, 0x3cd8fb613d0a4c65U, 0xbe0d7c4dbd97f3b3U,
  0x3e452742be81bcadU, 0x3e5fe426be04761cU, 0xbd9621dfbd09c20bU, 0xbd675c533d8c4c58U,
  0xbd88ce4c3d859dc3U, 0xbc3eb85abe5bc2eaU, 0x3d1cd8f0be1dbe80U, 0xbd218cdebd161282U,
  0x3e38b4f0bdd67a5aU, 0x3dbef52abdab6556U, 0x3a6a9d103d41d08dU, 0xbde5337e3d4ea3a5U,
  0x3d093119be024270U, 0x3e05ecb93e43cd7aU, 0x3c7462cebe2f2d6bU, 0x3dcb051d3bd3e2daU,
  0x3e5d2994bd4bc82cU, 0x3e294a5a3b0cddefU, 0x3e29e6a93db65e41U, 0xbcb072073d8fbbf8U,
  0x3d9ac38a3d9f3a36U, 0x3dce848b3d888760U, 0x3e30fe3fbe53903dU, 0x3cc56c16bbd1b77fU,
  0x3d92e7efbd63cfcaU, 0x3d691fccbe1c2643U, 0x3c546adb3e329a93U, 0xbe0866f8bc39aef2U,
  0x3cabd3d1bddd303cU, 0x3cb4f69dbc1d46afU, 0x3e13d1d7be9fc95cU, 0xbcebae22bd3ca773U,
  0x3cc06510be281976U, 0x3e23f52ebe571260U, 0xbd83041b387223beU, 0x3dd47d8f3d487369U,
  0xbbd87bcbbe14614fU, 0x3e3028063d2894c2U, 0xbd8fae67be024e25U, 0xbdbde4debcaa16b3U,
  0x3da353b13dc30b6aU, 0x3e07540f3d13018dU, 0x3c3925043cc49257U, 0xbd481bd93d734b04U,
  0xbdba53e1bc6e6a4cU, 0xbcd753093d505a36U, 0xbd6dc24c3e1e93f9U, 0xbd6205dbbe10d73fU,
  0xbd0453e1bcdc6756U, 0xbe6d96f9bce52c87U, 0xbdac89bebdaf2d9eU, 0x3da98d1cbdedff48U,
  0xbcd833d13d342b95U, 0xbd5dd6debdc4b1a2U, 0x3c78b53bbd8f411bU, 0xbc8e0b393a4a4957U,
  0x3dab8e4c3d9dd83eU, 0xbd5db22dbdde5eb5U, 0xbcdeaaefbdc85fe1U, 0x3c6eb54ebc0ce201U,
  0xbd0dcdf83bf052ccU, 0xbd28cc043b88de88U, 0x3d482c663cadf921U, 0xbdac97e63d5fccb7U,
  0x3bbd1722bd465bf7U, 0xbdebd785bd6e146fU, 0x3e077ec7bcddbee2U, 0xbc6f7cb8bd5d05c2U,
  0x3e07cf203dc18030U, 0x3d5210e03c298b00U, 0x3d61781a3d35d3a3U, 0x3df040ddbc5b87cfU,
  0x3e978a713d761f78U, 0x3e2839ea3e344bb9U, 0x3e2031a93de0ed8cU, 0x3c6519b2bd93e6eaU,
  0xbda949ca3d3464cfU, 0x3d3111e83de3c7c1U, 0x3d971be4bcce26ceU, 0x3dfbbacfbdcba6d9U,
  0x3e2831eebc5811afU, 0xbe41983dbd88c9b3U, 0x3d72c961bd385e9dU, 0xbd3b09a4bc37356cU,
  0xbdbb00173de661e6U, 0x3e027ec5bb6256a9U, 0x3c285227bd87c59bU, 0x3cd93ecebdccce3aU,
  0x3e051c693e0e0680U, 0xbb9050dbbd5b3be2U, 0x3e2279453d946c51U, 0xbd8a0ba23da7e053U,
  0xbd7956b23c8a344eU, 0x3e723e16bc437b15U, 0x3e5774943d98c41cU, 0xbc41a3553e530a3aU,
  0xbd909e873de215fcU, 0x3cf797453d8e0f9eU, 0xbd375c513bd1866aU, 0x3c0145543dd77ea1U,
  0xbd39b042bd5a8515U, 0xbd0eab413e3e2863U, 0xbd522a793e0bc422U, 0x3e06370fbdaa7928U,
  0x3e66d075ba8f0decU, 0x3d7a0205bd8f79f0U, 0xbdae95643e05406bU, 0xbd1aec723d80038aU,
  0xbdd0c8163db38b42U, 0xbdc8dc29bc59e2a4U, 0xbdf17751bd8005bcU, 0x3d4361dfbd8269efU,
  0x3d6568a93d335b34U, 0x3c231e79bc97f4e2U, 0xbdae1b7dbd3d7a61U, 0x3d8b559abbf7ea8bU,
  0x3b896751bd2a7818U, 0xbdb5da2f3e1bfc0cU, 0xbd91b9e23c7966e8U, 0x3cc79eebbdf34acaU,
  0x3e14e92cbcc1353eU, 0x3d94d3963c944a13U, 0x3c837fc23e12865eU, 0x3d43d43a3d8528e6U,
  0x3e13590a3d68cd9eU, 0xbd9cd0ce3e1389beU, 0x3cff1ba2be79cac7U, 0x3ddd04cf3c0222daU,
  0xbb0f6a823dd95df3U, 0xbd87a58dbcb222d5U, 0x3da7c6983d071d8aU, 0x3db1d8513d8948faU,
  0x3e2be922baf9c7d6U, 0xbac025ab3e37f073U, 0x3d14d4ed3c32c370U, 0x3d558c5f3e677c5fU,
  0xbab5128c3dbc3f7dU, 0x3d0028d23c8293c4U, 0x3d6b2d3e3dfa93a3U, 0x3cd7fd4e3d6ba4d9U,
  0x3c9159253d738743U, 0x3d89b5a73d0666bdU, 0x3dc8b7e6bcb276e9U, 0x3d2eaae43e18fddeU,
  0xbd28b436be0f5d38U, 0x3cf40ee63e013ffaU, 0xbdcf0cd03dce465eU, 0xbe0e5df4bce1cebfU,
  0x3d95e8583d1e8898U, 0x3dd8d05bbd052f77U, 0x3c8dccf43d2b7a35U, 0xbd2e7933bd022995U,
  0xbce2d19bbb82f873U, 0x3d9325c2b8befdecU, 0x3d15e32a3b81bc84U, 0xbbd22ae03d76e616U,
  0x3cb096723e43d2d8U, 0x3e08de1a3d89ab05U, 0x3c6ad095bce60701U, 0x3dbed00d3db727dcU,
  0x3ec01cc13d119908U, 0xbb8697523d877518U, 0x3dd479343da733baU, 0x3c8aa2cabd0d5f93U,
  0x3aea91e33d2bcf80U, 0x3e4a761ebc95fa8aU, 0x3cc43382bd6eda39U, 0x3c4c9013bdf5be12U,
  0x3e92d755bc1cc8f0U, 0xbc951a34bd5a589cU, 0x3c32b4cf3d58ca67U, 0xbc7a5654bdeb452bU,
  0x3dd249c43df4cdc7U, 0x3df8626c3e2af2aaU, 0x3d7e51abbdabbc48U, 0x3d3456c2bdb9ae27U,
  0xbc71de3bbc3bbae1U, 0xbd0dc2343ca025fbU, 0xbd2f66513dd47619U, 0xbc05fb8c3d3ecd59U,
  0x3dbfe87eba6564e3U, 0x3c47f31a3e906081U, 0xbca1a8063b392734U, 0x3aac6100bd5eba2aU,
  0xbc3b74e43db27e21U, 0xbcddaa6f3e61e152U, 0xbdfae0bf3d700940U, 0x3dd6611f3e052aaaU,
  0x3e171a08bd1c0e2eU, 0xbde064a03e561756U, 0xbce40878bd2eb7dbU, 0xbd2466743cbd3f06U,
  0x3d04fec13e2111aaU, 0x3dafc2ce3e89783eU, 0xbdea8a76ba2b2fcfU, 0x3de2d59e3d88b74cU,
  0xbbbd105a3d721fdeU, 0x3deb35f83e289791U, 0xbc964d8c3de267e7U, 0x3dc39f1c3ddf3a7dU,
  0x3dac0524bd845377U, 0x3da129783d1c900eU, 0x3c413e463d53b937U, 0x3bd0dce43d33b082U,
  0x3d44146f3d122853U, 0xbc5c85893de5f9baU, 0xbc81cffa3d98d2ffU, 0x3de81fa43c8c4daeU,
  0x3d1e3f41b9ddfa24U, 0x3d968b23bb8caff5U, 0x3ca1c70b3d0da2e1U, 0xbcf493633d600b97U,
  0xbce69d333d301bf3U, 0x3df62640be327237U, 0x3c6a3f123e3019c2U, 0xbaa3f7da3dc6b61fU,
  0x3ec009783ce8cbcdU, 0xbd379354bdb5b686U, 0x3d21b0fa3cf32e30U, 0xbd6e818d3d789654U,
  0xbdadddf53dd8997bU, 0x3d4740c0be077bedU, 0x3daa86763e7c434aU, 0xbd9233993bde8385U,
  0x3eb0abacbdbbec46U, 0x3d4abdfdbca8497aU, 0x3cab17053c7ba921U, 0x3ba33b0b3c844d14U,
  0x3c12bd8dbc32cd2bU, 0xbd4f696dbb8adbbeU, 0x3dc2e445bd904f5eU, 0xbdfdda49bd536f23U,
  0x3e335101bd0b53faU, 0x3e32ab233da5601fU, 0xbd78e9073dcbd075U, 0x3ce8935abc51fcccU,
  0x3d1b6866bd5164acU, 0xbd2cc9c43d2cb40cU, 0x3ceb91c6bdba37a3U, 0x3d755f9dbdb105f9U,
  0xbde8b54dbba13383U, 0x3d2552de3e5e694dU, 0xbd9ce8f53dbb403dU, 0x3e80bb843dce9d97U,
  0x3e098ac8be1e9179U, 0xbddc4a0e3e122450U, 0x3d8f4aafbe5b7cf6U, 0x3de46d5b3db78f39U,
  0xbc1e74733da0e746U, 0x3c2a3f843e6365d9U, 0xbd0b90003ce81214U, 0x3e2301a63cda8233U,
  0xbcad77d3bcc0e5d9U, 0xbe68e1c53d3bbc87U, 0x3dce21b33d3c62f9U, 0x3dc4504c3e027221U,
  0x3d08e9c63da3d186U, 0x3d5e4a3e3e28448cU, 0xbd8b3e5cbca7be04U, 0xbe77110e3dd619f2U,
  0xbda2cde9bc842bb8U, 0xbe05a9ee3da5c9bcU, 0x3d93a62d3dcf29f2U, 0xbd87919b3da45bc1U,
  0x3e00feb93e7392efU, 0xbdbb6745bdba3362U, 0x3dbf0639bd36b6a0U, 0x3cf2ad7c3d21a1a0U,
  0x3cc459f33e0d6868U, 0x3de47587be4d0caaU, 0x3d0b8f413decea8eU, 0x39cf5f0c3e23970eU,
  0x3cab49d9bb4de312U, 0x3bbae06c3d19eb42U, 0xbd3b2662bdb832e7U, 0x3d48af48bd9f8a14U,
  0xbc579ed13baae4d7U, 0x3c738b37bd3b0d99U, 0x3d5e3c6e3d8321bdU, 0x3c16b5523d9eedc1U,
  0x3d5527623b8bdd50U, 0xbc2d4abb3d16df87U, 0x3cf787043dbc062fU, 0x3d8c55ab3b18151bU,
  0x3dbc13183d69b3c6U, 0x3e5e4d443e5fe854U, 0x378df330bde47fafU, 0x3da35189b8b95cccU,
  0xbdfa7d45bc4d279cU, 0xbd10d3c93d50746fU, 0x3cf3d64d3e1a4efaU, 0x3dfb9a353da5c6d1U,
  0x3e72f5b6bd8787c7U, 0xbc3e86663d60ffedU, 0xbd3edf84bdd0d01eU, 0xba9a7d3e3d35fae9U,
  0x3dff46133de1b8dfU, 0x3e35ed19bd9f15c3U, 0x3e0ec2c2bd9dff52U, 0x3d3f90673e05cdafU,
  0xbdf8627b3c946f0bU, 0x3d3a2fc73d715cc7U, 0x3dc034a03d90243bU, 0x3d09558f3e356a8dU,
  0xbcc906d73df0774bU, 0x3e1ecc8b3c80e5a4U, 0x3e34aa49bdc1c032U, 0xbe061ac3bce3a049U,
  0xbd32dba13da7e2a2U, 0x3d07fbcc3d5cb3b5U, 0x3e1025453d90ac62U, 0x3e277f8f3dc185abU,
  0xbcdc6ca33dae595bU, 0x3d469f903db533b8U, 0xbd69c079bcaad5cfU, 0xbcfb21973ced158cU,
  0x3d15f664bdb6f7d4U, 0xbd406aa03d992901U, 0xbde5b3663b6cc0dfU, 0x3d5bcfaebcb38fedU,
  0x3d8bec6c3e045b04U, 0x3d5e306abd640f72U, 0x3d0a04c6bdd6db2bU, 0x3c1d2d63bd0bc391U,
  0x3a9f79b3bd827ceaU, 0x3d03284f3e23ce20U, 0xbd547d4b3df1c4adU, 0xbdf1c2283d0b9ff4U,
  0x3ca0ccb83cb3da33U, 0x3bbafaf73df48e59U, 0xbd9d0d653c8805f2U, 0x3da1cebbbc2ba3c2U,
  0x3b48d175bddfcb8fU, 0xbd83821cbc5dcd94U, 0x3cf17a893de202caU, 0x3ddb949d3d37ad46U,
  0x3d1c0e843dcc56e5U, 0xbe180f9b3c1ed66cU, 0xbd6c8d00bcceeab9U, 0x3dab9ee83d8fe0d5U,
  0x3de726693dc93535U, 0x3d3f58423e971e56U, 0x3d5fb403bd1a909cU, 0x3ddbd7e53d4be78cU,
  0xbdbc3492bcee3724U, 0xbdc0cd7cbd411990U, 0x3dc5af033dc41c1bU, 0xbe22c78d3d6dba08U,
  0x3d815ac3bd12210bU, 0x3df82a8dbd8c41feU, 0x3dc012673dece550U, 0xbd537e1a3cc238d3U,
  0x3d2a2a943d8775ffU, 0x3d30a6a3be7da98dU, 0x3da4fdc4bde015afU, 0xbd6e433e3d3a6c90U,
  0xbcef8bea3dcb2589U, 0x3d9a86793cd8b35fU, 0x3dfe75a93da21d7aU, 0xbdb8dcd63bd1f71fU,
  0x3dd3c94dbca0c5a3U, 0x3dd47687bdcbd997U, 0x3d2cee38bd4b01abU, 0xbddd6daf3bd11533U,
  0xbd92860d3e1cff17U, 0xbe23762c3da0cfacU, 0x3e03692e3dd1abd1U, 0x3d2719ce3c118355U,
  0x3cac4f6dbd2a868eU, 0xbdd5afe3bc7863e5U, 0xbce6de7b3d544efeU, 0xbb8bd64bbd997798U,
  0x3d7e50a8bdbcd8cbU, 0xbccf3be8bc73c48fU, 0x3c8a2e44be038c8eU, 0xbe7eb258bd14afe5U,
  0x3d05fe1ebda6355aU, 0x3e2742ba3d987584U, 0xbccca3f4bdf1f53eU, 0xbd967a533c820aadU,
  0xbd4b6496bd0d2cc4U, 0x3d5548d7bdc22dfeU, 0xbd59477b3d2db674U, 0x3da0a03dba9bc04aU,
  0x3d2c3dc3bd748e46U, 0x3cf5c312bc53c311U, 0x3d72175ebe0dac6aU, 0xbcec40b73c83c72bU,
  0x3d346d10bd556616U, 0x3d9207123d18508dU, 0x3dca1fc0bc3811afU, 0x3d20728dbd41ac4bU,
  0x3d9e13c2bdef1739U, 0xbdb9dc3f3e04e9aaU, 0x3d0d659f3a2c4539U, 0x3bb1b6683cf8eb9cU,
  0xbc0061b13d4bd21fU, 0x3c4eb68e3e06c1d3U, 0x3dffcf34bd422b34U, 0x3d9667093c37bce4U,
  0x3dc10c61bd4a632dU, 0xbbe68e183e3a5742U, 0xbbbd15e03dda653dU, 0x3c041ee63d24885eU,
  0x3d287bb83cf9fb3fU, 0x3cc9ba393d83dc41U, 0xbb92eb693bbe8b77U, 0xbdae38853ce22928U,
  0x3d572686bcf99b23U, 0xbe1de72ebc0f0326U, 0x3d13f1a43ca8a11cU, 0x3d7e07a43d1c057eU,
  0x3da4a2353d4cf058U, 0x3d1e6c873d89a770U, 0xbc88afe2bd02a8f8U, 0xbd1c0684bd7c1cefU,
  0x3cdb98763d849b5eU, 0xbd9c29283d8acf69U, 0xbd94cc6c3d27806eU, 0xbc3c0f70bd963a1dU,
  0xbdc0a82ebd904a60U, 0xbdb058593ded9ab2U, 0xbda1674b3bf57e09U, 0xbdde63e03bc80e1dU,
  0xbd73729b3cc1f3a9U, 0xbc92651ebd2dd14aU, 0x3c327eaebdf37382U, 0xbda9e7b33bb63c32U,
  0x3b0ea6b7bd58bbc4U, 0xbd99a352bcc93046U, 0xbd642fda3cc1e70fU, 0x3cd6755fbdd949fbU,
  0x3d209b1ebcf50719U, 0x3d5c2752bc60b24dU, 0xbcfea7c1bde235d0U, 0x3da13608bc06afbaU,
  0x3d62afc53b4a437aU, 0x3dd6398b3dac5e32U, 0x3db5269d3d14a5b5U, 0xbe126a043d03c753U,
  0xbd455c073ccfd0d5U, 0x3d2d09b13e08e656U, 0x3cd483a6bc07ea0aU, 0x3dcdda463cad7763U,
  0x3e08aefc3bf8d82fU, 0x3d2bff05bc8477bcU, 0x3e11a9463c51b561U, 0x3d3c1740bc87c837U,
  0x3e3685c43d4acfc5U, 0x3e086a423e72ec76U, 0xbabea5a23d24967eU, 0x3d83e990bd8907daU,
  0x3cf4100f3d2771d5U, 0x3c7e2bc13e57e3f3U, 0x3d9a4f39bc08bea8U, 0x3d9c00633db5ccbfU,
  0x3e1530943d616708U, 0x3c38bde93d7945ccU, 0x3d8d51963e38fddfU, 0x3dc7bead3c2cbc7aU,
  0x3dcefa093d0ec430U, 0x3da1cca43e2e0890U, 0xbda6b56c3aa535caU, 0x3c80d750bbcd1afeU,
  0x3db1a3833d8db253U, 0x3e10409a3e56b6beU, 0xbd8232ab3dda9d2cU, 0x3e7148893ccaae26U,
  0x3db76f303b23084dU, 0x3c2a2ffb3de05ec2U, 0xbda77901bc674d23U, 0x3cd97bdb3d0098d1U,
  0xbd33459a3b8c64ceU, 0x3d184ab33c9c0e94U, 0x3b2f0b5abda16ecbU, 0x3d517830bd240bacU,
  0xbdc4b8dbbd760a0cU, 0x3cb5997fbbe02304U, 0x3cbad617bdb0c40bU, 0xbce38d83bd8f143cU,
  0xb9828b20be0a9293U, 0xbcb02f88bd19fb2cU, 0xbe2a4adbbd8effb6U, 0xbdc5c229bdcc05d7U,
  0x3d8f10d1bde9ca4aU, 0xbe2ef1b4be142fdfU, 0xbd05102abcf809bbU, 0xbdf8574dbd5b9b6bU,
  0x3b308618bd2baea6U, 0x3d2105e03c8dc71eU, 0x3da143e43dc0ba17U, 0x3d8b5bdd3d8fead8U,
  0x3dd0f465bcc9b31aU, 0x3cc007bbbcb0687bU, 0x3d8200e3bd12e0c6U, 0x3d5fb0623cf94ec1U,
  0x3e22a216bd9d6950U, 0x3de429cd3dba970aU, 0x3e1ad36a3d8dfccdU, 0x3e10ff353d3b44b9U,
  0x3e6a9a0a3d957f95U, 0x3e4e07ee3e698a91U, 0x3d98482bbc91fb06U, 0x3d7032743b285b4dU,
  0x3e564085bc835f95U, 0x3cdb1d15b8e8e864U, 0xb985694d3dfb5166U, 0x3d3dbf763cb465f6U,
  0x3d3c668abdd93f65U, 0xbe014d033d8aa8e7U, 0x3c67c4b2bd63e8f8U, 0x3dd315d63df60518U,
  0xbc48202b3e994d8aU, 0x3cef0f733a83701eU, 0xbdd5104abd139ec0U, 0x3bc65aed3e50a593U,
  0x3cfdb3cbb89b6134U, 0xbd6e31873df9baa9U, 0x3ddb0af6bd835f88U, 0x3c1a0aed3e1c5744U,
  0xbda5ccd93e5c9e81U, 0xbcc134843bdc9d56U, 0xbdafd5673e1a8ad1U, 0x3d8a4410bd4bacd1U,
  0x3e51976bbd55013cU, 0x3d5f906ebca0b627U, 0x3d279cb23bec6adbU, 0x3c0b396e3d8545f6U,
  0x38e8cd523e2ccfc3U, 0xbd5d3997bc0395b8U, 0x3d8b631a3cdd4057U, 0x3e15a5ad3dcba311U,
  0x3d5e898bbbdfdd67U, 0x3d2d19a53e3924abU, 0x3e08c3e63be16f1fU, 0xbc70a9cb3dc11336U,
  0x3cfa20793e2c46c3U, 0x3d52c6603d25f769U, 0x3e172f233dcdfa0bU, 0x3de613393db14488U,
  0xbd7950f23e31f1b7U, 0xbd1e0a5c3d82c184U, 0x3e08467a3d2b78d2U, 0x3d31ae503d814dd6U,
  0xbd9752e4bca6c740U, 0x3c9ff4ebbd961af4U, 0x3c753421bbcb5224U, 0x3d49def6bd89af37U,
  0xbd0ecd603cc63825U, 0x3c855d57bcfa2d71U, 0xbcf5d689bdff6fe4U, 0xbd855626bcb4ec99U,
  0xbe0270afbd114fa7U, 0x3d8433713ca2e4fdU, 0xbdacdbe53e05a595U, 0x3d64ee7e3c72d401U,
  0x3ce85579be110392U, 0xbdb8c4dc3e121580U, 0xbd87e884bd9dbc89U, 0x3df3ed3bbd27a4e8U,
  0xbd9a1e2e3da09d1bU, 0xbcb8637e3cbea6afU, 0xbe2321433dbdde96U, 0x3d975d863e3685adU,
  0xbbf1bff7be1d2267U, 0xbe39232f3e340692U, 0xbbdd2f1abe4086adU, 0x3d9eb9c63dd29e57U,
  0xbe0943253dfd6a64U, 0x3b94db7c3e129f05U, 0xbd2d0dae3b94b6cfU, 0x3d9741033d95c383U,
  0xbd65bb91bc74a7dbU, 0xbe62ca9e3dde9785U, 0x3b06fe953d896cdaU, 0x3ccedb403d9a147bU,
  0xbb20abca3e0f331bU, 0xbc8448243dc48250U, 0x3dda9b70bd7c8ab4U, 0x3dad87e73c9c24a2U,
  0x3cced30dbd64bf30U, 0x3d23d33f3beef38cU, 0x3d83c8983e1d106eU, 0x3ce1ef523e490471U,
  0x3cd9cde33db7410aU, 0x3da09faf3dc6e757U, 0x3e02df0bbda3fb66U, 0x3dabc1b93be17af9U,
  0x3d50d1e5bc60523aU, 0x3d706e2d3cc75b4fU, 0x3d88986f3e193b99U, 0x3d6bf1bb3e1ac01eU,
  0x3dcb70243e000ae8U, 0x3d9e93dd3e17d7c9U, 0x3e1555f03dae27f1U, 0x3da21f3c3dac3cb5U,
  0xb927d3743d778c5aU, 0x3d3924563d588eb8U, 0x3d7f0dae3e50613dU, 0x3d3e1cf33dd1a519U,
  0xbd5473c3be368c4bU, 0xbd6e77a33d30cac4U, 0xbd2e8e9cbd094474U, 0xbcd005993d39f3f1U,
  0xbaa932b8bc975a49U, 0x3d3d2a453d6d5983U, 0xbd785d66bd1d618aU, 0xbd41f2f6bdbff2c2U,
  0xbe6912c1be0505a9U, 0xbdf49a9e3df10043U, 0xbd09d1a13dcf277bU, 0x3d40d628bd027401U,
  0x3caf0451bd749e46U, 0xbd7700f83e69e9e7U, 0xbd2a72edbea6aa54U, 0x3dd4c2a0be0e73eaU,
  0xbe3b60173c967d20U, 0xbd3374643ddc4f46U, 0xbd8c13503d06de4fU, 0x3d690e8c3da48a3eU,
  0xbbc6dee4bdca0c9eU, 0xbe2ba2fb3e16b2a8U, 0x3daf4769be10494eU, 0x3c7b988dbd8a97e9U,
  0xbeb08b823b0b2f6dU, 0x3ce991053e104348U, 0xbd3c018cbd82d6bfU, 0x3d800b3c3db02abdU,
  0x3dcf67f23dba268fU, 0xbe52cadb3da37f87U, 0x3d2e1eae3d6e9f15U, 0x3e0606ce3d88a683U,
  0xbcc082cf3e01352cU, 0x3ddc57993e10a82fU, 0x3daf86b3be47bef4U, 0xbd827ed3bcb08467U,
  0xbe3b71a73dbc07ceU, 0xbcd69ee6bd852b3cU, 0x3e065d463e331a8fU, 0x3e2c86563d8f61e7U,
  0x3ceac8033d28d71cU, 0x3e27e7a13cb4a162U, 0x3da07b8cbe3e0157U, 0xbe3af14bbe081b0dU,
  0xbd65d3ad3e5df40eU, 0x3e4170f5bda442b1U, 0x3ddd179b3eac96ecU, 0x3e2953b63c10a647U,
  0x3cc1f19b3be07d71U, 0x3bcde1c2bb405f75U, 0x3de53abcbcc1567eU, 0x3dce5f0fbd54fadbU,
  0x3d2a538c3e2dd112U, 0x3eaa82cd3d17b259U, 0xbc91d7ba3d6965faU, 0x3e58686d3d3c4778U,
  0xbdef8482bde14629U, 0xbd0c02ff3d16d84cU, 0xbe54e403bda98cbeU, 0xbdf3be3ebd121530U,
  0xbdcc4ed13d1ba467U, 0xbce4215e3e83a057U, 0xbe19d4b0bdab242cU, 0xbdfb3548bc159ce4U,
  0x3e8020d0bd9b1424U, 0xbe84cefabcf1dcb7U, 0x3da4e5aa3d51392bU, 0xbbb74fd73d7e50d8U,
  0x3d2894483db7f3ecU, 0x3d98d9cd3db3bd84U, 0xbe3a6c3ebdec414cU, 0xbe530a14bd8f045bU,
  0x3c7b002dbdac9f78U, 0xbbc6a821be31e7a2U, 0x3c4e44f53d1b5f65U, 0xbd2a9664bc999177U,
  0x3da3da243cbfee8cU, 0x3e072b59bda78b2fU, 0xbd5ac69dbda4dc48U, 0xbe2cbc56bde2b920U,
  0xbdd747963d1fd264U, 0x3e779fffbdcbb1daU, 0x3d4ee5c3bd17c838U, 0xbb8cc625bb5824ebU,
  0xbc3454e03cdc0ce8U, 0x3deebc2cbde84f75U, 0x3e31585bbbf7c6f3U, 0xbc18fcdd3e30323cU,
  0x3e2dca48bd768521U, 0x3db75247bdf343ffU, 0x3d0b9ed8bd9acf60U, 0xbdf343453c29966cU,
  0xbe647bed3d8f228cU, 0x3dab9c29be2c0f48U, 0x3e337d973dd6aa7cU, 0x3de824cb3d0af00eU,
  0x3dbd1ee0bd98d945U, 0x3d900c75be64c520U, 0x3794aba0be784316U, 0xbe1626d6bcef270dU,
  0xbd0dff8d3d850af8U, 0x3c357b8abd555017U, 0xbd661c9b3de7053fU, 0xbd80b7e9bdc00145U,
  0x3d59bf613cc98d58U, 0xbc23615bbd8d700fU, 0xbde68f96bd68e1f5U, 0xbe4b0d3fbb8fc111U,
  0xbdc310b1bad281e2U, 0x3e046a1dbde7d48dU, 0xbdb0fcfabc74630cU, 0x3d93be933c251dd4U,
  0x3aecaa123b835d2dU, 0x3d7a84d13d863cabU, 0x3d294b1fbce5dc26U, 0xbc7ebf4cbd0f02a0U,
  0x3dbfc0fe3d6511f7U, 0x3e05ad86bda8ed02U, 0x3d23272a3c905669U, 0xbdd0ea933dc10394U,
  0x3e1f92f8bd43851eU, 0x3d6d29dcbe014173U, 0x3d2aa0c63c9e1e37U, 0xbe40cd3d3be4e3dbU,
  0x3d4fb85b3d81613cU, 0x3d9a39babe9cbce1U, 0x3d34600e3bb0206cU, 0xbe4d4ce7bd080064U,
  0x3dfbba2cbdbeb467U, 0x3d46712fbdfebbf5U, 0xbc9bb19dbce0984aU, 0xbd53ee1bbdf00d0dU,
  0xbe2c744b3c80df52U, 0x3dbdb9e4be9f0befU, 0x3d916b853c9b34f7U, 0x3c4e1076be0e1d09U,
  0x3c88d7ddbc89b7feU, 0x3d0d57e0be1de368U, 0xbc9df1493c811bcaU, 0x3d0cd45dbc54bbdcU,
  0xbd2704ec3e247816U, 0x3d004d45be25e0dbU, 0x3d63ccff3e25588cU, 0x3d8f162cbcbcb5c6U,
  0x3ce2f3973db444d4U, 0xbcc6d0fb3c149a7cU, 0xbb96cd693db24483U, 0xbd3ae490bc277447U,
  0xbdb26c1ebcb67531U, 0xbd114d093ce730cfU, 0xbda18547bd3d2273U, 0xba0a16623d4b09c6U,
  0x3d9347cebc24092cU, 0xbdff56cc3dd7f7bfU, 0xbe1fada9bd081b98U, 0xbd4560bbbc980a87U,
  0xbe022976bd6c52a1U, 0xbd5c2e003d7ad280U, 0xbdeb7ea8bd934079U, 0xbe4f73fabd08b5edU,
  0x3c8701c0bc75774fU, 0x3d2dd9f9bb1dca8dU, 0xbe24c1363d3c6c95U, 0xbdb8db113d869df7U,
  0xbe1f41763cfa7c8fU, 0xbd80ead6bdc8c01eU, 0xbd13f3e4bd249cd3U, 0xbd067c803d5f40d4U,
  0x3da8b08e3dbcca9fU, 0x3d8565d7be3f4ab0U, 0xbd84b400bc70a4baU, 0xbb16e5f6bd51d866U,
  0xbd3df305bdb5ef54U, 0xbd2d88713c830490U, 0xbe2a24843d552859U, 0xbd15c5a33ccbe4f4U,
  0x3d814ede3c85378cU, 0x3e9162c4bd452d5eU, 0x3d63699fbd68083dU, 0xbd864e4f3cebbbd4U,
  0x3d73fb9b3d181231U, 0x3d209b6fbda89018U, 0x3d2901b73da4ebe0U, 0x3d855b7cbd4c81a6U,
  0xbe0c218e3cb8a290U, 0x3d84e5a1bb853b02U, 0x3da4160ebc9093f2U, 0x3ac586383d5f3667U,
  0xbd54ca963d99dfffU, 0x3b59bc28be80ec71U, 0x3d9169913d875abaU, 0x3de4dacbbbe739adU,
  0xbd6cc2a8bcba7077U, 0x3d9e29213d82c816U, 0x3ca671fabd905f8aU, 0x3cf630d63cc04663U,
  0xbc024c093d80f943U, 0x3cf3c9a6bce0a673U, 0xbc38134d3d1eb128U, 0x3d4a4dba3d8ae4c0U,
  0xbc7a1ddbbb3aee50U, 0x3d2eac823dabc2c0U, 0xbcf9270bbd5137f2U, 0x3d309c623d842f43U,
  0x3d8876f9398b826cU, 0xbe01b5f73c1c21e4U, 0xbd1e03743db03033U, 0x3e02d79f3d43d3b6U,
  0xbded44fdbc7c9ae8U, 0xbe22d8493d4afbabU, 0x3c1df37d3dd4d14eU, 0x3e2bbd1a3d6fdf3cU,
  0x3dbc1004bd1e918fU, 0xbe4fe56f3d9fce81U, 0xbced2d61bd2a7538U, 0xbe2f6cd93dbf5e63U,
  0x3db01b12bc1f2338U, 0x3d0835e5bd9531e1U, 0xbd8f87523cbf614cU, 0x3d2fe8313dd9a15aU,
  0xbd2ec9eebd523495U, 0x3d373d6bbb40d053U, 0x3d334379bd079626U, 0xbdbaf3bc3d052e9bU,
  0x3d3cb1c5bdc17134U, 0x3cb444d1bb88bf33U, 0x3d0f73e63d0eafafU, 0xbbdb92a7bd5086e5U,
  0x3caceee93c71b5c6U, 0x3e42ed0abd6b4d0aU, 0x3d439091be08faf9U, 0xbad7d1183e02026cU,
  0x3cce18c3bd1d3332U, 0x3da0d7c83da8ab07U, 0xbcf1fd8a3c36472fU, 0xbd35c1b7bdf43ff8U,
  0xbcdd3777bdc56394U, 0xbc09ff0cbc7b7e06U, 0xbaad6edfbc2487deU, 0xbcda0795bd2fde58U,
  0x3d42b1893c6558b7U, 0xbd8ac65c3d1e3c2aU, 0xbd94e37ebd30ba00U, 0xbd4fef5fbc895ce7U,
  0x3dc38aadbd3a9bcdU, 0x3c8b3fe2bdc395f3U, 0x3e08c3fa3bede3faU, 0x3a1b4158bb16d3f8U,
  0x3dacbff4bc8be658U, 0x3cec3ea9bd3c59bbU, 0x3be4e5d5bca3cbd1U, 0xbcdaef76bcb28370U,
  0x3e1629d33c850372U, 0x3cfaf85e3d3e294dU, 0x3d7732273b4561ccU, 0x3dc171e23dae5a8eU,
  0x3cd0654dbd9c3a83U, 0x3d7952c33c4a812bU, 0x3c23b9693d271920U, 0xbd811f1dbbbd878aU,
  0xbc92ec173d9d8957U, 0x3d3bb3b93cbeb14cU, 0x3d6837b33c557fc0U, 0xb9f4ef5a3c4e90beU,
  0xbe050b363dfc2243U, 0xbd6c47a6bdb84cb5U, 0xbd5cb2a3bcc6ea94U, 0x3ceca2333e095685U,
  0x3e1f30fe3ced2854U, 0xbbd265143cb1f722U, 0x3bbcef76bd8f8b2aU, 0xbcd3709bbc1137ceU,
  0x3dbb693b3de183b0U, 0xbcaaa3bebc8a4840U, 0x3dc6a51d3d267276U, 0xbd6c867a3df1d2f5U,
  0xbda809e23e0980edU, 0x3ddc9c633db10683U, 0x3d9388273d14a7f3U, 0x3ccc43de3deab64dU,
  0x3dd7f2573d50fcddU, 0xbcbac94c3da86a1bU, 0xb9b6522c3dda1911U, 0xbcae12a33d2059afU,
  0x3da503c4bd65bb22U, 0x3db2ddc43d8e13aeU, 0x3da88d3c3bb01d2dU, 0x3daeadc33cc79992U,
  0x3c1a4d303d9cce41U, 0xbd92c6043ae03868U, 0x3d9624d13cb4ee92U, 0x3df8ad8f3dc30e4fU,
  0x3e26459b3d35863cU, 0x3dc07dee3dd65f22U, 0x3d7c50173c7f490bU, 0x3e105a51bacba757U,
  0x3e1a53463dc499e1U, 0xbbd34ea4bb902b57U, 0xbbd48f043d74f280U, 0x3d7b4f333d5a5c7aU,
  0x3d21be08b929ed20U, 0x3da74953bba4ac20U, 0x3de06ce2bd687446U, 0xbc0b60e43e3ba361U,
  0xbd4b38cb3e665025U, 0x3c50d38dbcbae8acU, 0xbd35d339bc794ecbU, 0xbd2dd7e93dc21301U,
  0x3c5bda8cbd1ec792U, 0x3ceade3a3e093e00U, 0x3cc5a3a83e473358U, 0xbba7e9f83d6d74cbU,
  0xbd30c46abddb1815U, 0x3d47996cbc07bcddU, 0xbc3aa0e53d4c918dU, 0xbdacf14dbd624816U,
  0xbdabb1643dbd1f65U, 0x3da3db1dbd5c25ffU, 0x3cb58e6ebd7fb180U, 0xbc345effbd877ea5U,
  0x3d47e7a0bd9e8685U, 0x3df668c1bd346101U, 0x3e7488b13da74b79U, 0x3e1b415bbd93bc76U,
  0x3e499a0d3d411bd7U, 0x3df756363d711c07U, 0xbcba78413d12a1efU, 0x3cc0c6c2bd649810U,
  0x3db084bd3e49efafU, 0x3d0e0494be214441U, 0x3e0fbd053d5d4f38U, 0xbc6d786c3d7a8b3dU,
