/**
  ******************************************************************************
  * @file    ai4i_data_params.c
  * @author  AST Embedded Analytics Research Platform
  * @date    2026-03-04T20:50:07+0100
  * @brief   AI Tool Automatic Code Generator for Embedded NN computing
  ******************************************************************************
  * Copyright (c) 2026 STMicroelectronics.
  * All rights reserved.
  *
  * This software is licensed under terms that can be found in the LICENSE file
  * in the root directory of this software component.
  * If no LICENSE file comes with this software, it is provided AS-IS.
  ******************************************************************************
  */

#include "ai4i_data_params.h"


/**  Activations Section  ****************************************************/
ai_handle g_ai4i_activations_table[1 + 2] = {
  AI_HANDLE_PTR(AI_MAGIC_MARKER),
  AI_HANDLE_PTR(NULL),
  AI_HANDLE_PTR(AI_MAGIC_MARKER),
};




/**  Weights Section  ********************************************************/
AI_ALIGNED(32)
const ai_u64 s_ai4i_weights_array_u64[1635] = {
  0xbe875cb8be74c864U, 0xbdad2ff63c91427dU, 0x3eee5f94bedbdcc1U, 0x3ee14c6b3d726340U,
  0x3e22e9cfbde0ffbfU, 0xbef5d1c6bd8d81b8U, 0xbec7b55bbe9d1e35U, 0xbe479b01be8f9db8U,
  0xbc452f2b3cb3006fU, 0xbdc8ef69bf07b592U, 0xbc110ed3bc25fefeU, 0xbe21c6823dab817aU,
  0x3e63db1dbd59c6feU, 0xbede59babe8c0ab9U, 0x3e969874be3a6e13U, 0x3e5679513df32345U,
  0xbcfb2205bd4be870U, 0x3dac4215bf07437fU, 0x3d9cd68fbc05702fU, 0xbdf260063d8a4868U,
  0xbcd6f0d03d43db93U, 0x3e03befebc080a21U, 0x3cfbe85f3edc2ef8U, 0x3d1efcbabd965165U,
  0x3e3464adbe3d0b01U, 0x3e3b43c43cc01da8U, 0x3ac182fa3edc2ce3U, 0xbdba43f5bdeeb6f1U,
  0xbe73306a3e4fa8a8U, 0x3dbc2e4d3cd03857U, 0xbe17f87d3ed88b54U, 0x3e6f78e8bc1eca62U,
  0x3d7719a9bdcd9bb3U, 0x3e6369663d4208f9U, 0x3cc592c53eb76dbcU, 0x3d0fe24ebeea9600U,
  0xbe1fca5f3ca72fd9U, 0xbe290f6fbe5ab837U, 0xbc1f12303d61ec1aU, 0xbe0425c0befd8f42U,
  0x3e1cee8c3dee170dU, 0xbe343e33be8352feU, 0xbe2be432bdea9746U, 0xbea1b4fdbd6a4531U,
  0xbdfae91ebe43385eU, 0xbed052fabe8def92U, 0x3ea5242bbd0827cfU, 0x3ec7a4f4be3a776cU,
  0xbe0e602e3dd2e6f8U, 0xbefe8903be24e96dU, 0xbead9159be1a61bdU, 0xbe864a763e61a4c1U,
  0xbdca762ebe6de542U, 0xbd631b093e979431U, 0xbe4a9215bdbbfd17U, 0x3e4817223e919656U,
  0xba2047d23b2b3b50U, 0x3e88c2283d2c1445U, 0x3b2da2d53e2c282aU, 0x3ccb14f63de4f440U,
  0xbe8617da3de7e7a1U, 0x3e33f8c83ea19ce9U, 0x3db273123e310ab4U, 0x3da282893f0b2ef1U,
  0x3da97a73bc1c6fb2U, 0x3e4e9e723f018d64U, 0x3e14180ebed8342dU, 0x3ca7047a3ea00162U,
  0x3d2dfac1bdffa201U, 0xbe0428333ec1a23eU, 0x3eb7b441bbd199c6U, 0x3e0211133d9260dcU,
  0x3e13e33b3e015da2U, 0x3e30f8cbbed3f225U, 0x3cb85ad23d836254U, 0x3ed0a6243d259caaU,
  0xbe57c84f3ea66fe2U, 0x3e5481c93db98b71U, 0xbd0c6523bd3e1509U, 0xbec32809be331fb3U,
  0x3d4a3f77bdaeb8dcU, 0x3ce4b7df3cc9aebeU, 0x3ca9157b3ed2f6eaU, 0xbd11e9313d728ad5U,
  0xbd5576d23e9252adU, 0x3c923a15be6c0163U, 0x3eacab5cbe420a50U, 0xbc2b8397bd70653bU,
  0x3bed5c3d3d1bb67aU, 0xbec113eebed526a3U, 0x3f272950bc924442U, 0x3dbaf35bbe371f3fU,
  0xbdc43d8d3e2b7f81U, 0x3e519ff43d1cca14U, 0xbba670fa3ee8b5b3U, 0x3dc6411abdd20464U,
  0xbc86218f3e6ee1c1U, 0xbed1cb793f055a64U, 0x3c4fcd823ac377e0U, 0xbe5bbed93e936d7dU,
  0xbb922aedbd80ba35U, 0x3eaffdc7bf13f3adU, 0x3ccbece2bc99e160U, 0xbcfc1136be68f5acU,
  0x3c90d91cbd610d8eU, 0x3ddcb5c8bed17a10U, 0xbbe07241bca62bdcU, 0xbe7deffebd240679U,
  0xbd1f8ceb3e2a45cdU, 0x3e63c2d83eccbfe3U, 0xbdadfc873d9e93a4U, 0xbdec245b3e92680cU,
  0xbe8b5a3dbe1a5d70U, 0xbe7ed39ebef489d4U, 0x3e1da638be47ae36U, 0x3df83c6ebe3f410fU,
  0x3e9a3311bea6493bU, 0xbe0fa7c8bec9ee2fU, 0x3c725ded3c259ca8U, 0x3ece0d3a3dd9be55U,
  0xbd5db3303d93d684U, 0x3e9a16933b0e58f4U, 0xbddc72a7bd32cd17U, 0xbe63387dbef67fe2U,
  0x3e2ef3b3be629458U, 0x3e86a34b3d65287fU, 0x3ca683ef3e7eba02U, 0xbdbb67e23dda2470U,
  0xbeb45a8f3d71b1c9U, 0xbe133ffc3d43267fU, 0xbdd41be33e6b2dc9U, 0xbe653de7be658a7bU,
  0xbe45cd443e8fefe9U, 0x3e87f9063d80d99cU, 0xbc87acad3edb8541U, 0x3e1e3510be4d9434U,
  0xbe453a873e96a7c5U, 0x3e74ae303d42429fU, 0xbbd2ddc23ee32ae4U, 0x3e1f4232be16411bU,
  0xbd17a7623d4fb502U, 0x3e77a35a3da855a1U, 0x3d07838b3ed07dd6U, 0x3ce898f7be009458U,
  0xbd38b651be8ea8b4U, 0xbdde0f06be2da400U, 0x3deab9acbf138a5aU, 0x3ed70b88bca2b9b9U,
  0xbd42c06bbe340033U, 0x3e6b71cb3ea02386U, 0x3f08d66abeb92d2eU, 0x3e0a9f123dde4068U,
  0x3d6480c8be8fc4adU, 0x3da6797fbf0f4cadU, 0xbcad7217bd3496eaU, 0x3ebd8902be062480U,
  0xbcf88a543d8b2220U, 0x3eb41a3dbeea5d3aU, 0xbbaef10b3a2c34abU, 0xbde035d4be8e1d09U,
  0x3d704d47bd50786dU, 0xbeafe13ebecca409U, 0xbd99341b3e934fa8U, 0xbde0fa22bebb8a57U,
  0x3ccb42083e0631c0U, 0xbe20d9fabc5d68d0U, 0xbde146723ea644baU, 0x3e1751f33cee1efdU,
  0x3c82e19b3ec441fcU, 0x3dd7324cbb779c0bU, 0xbe842081bebcf40cU, 0xbe04c15a3e8e22e7U,
  0xbe6fcf103ec62a30U, 0xbe937e38bc98495dU, 0xbdaad8e9bf293692U, 0xbe3fc2aabeee341aU,
  0xbe20f37c3d209cefU, 0xbed1353cbe0b19cdU, 0x3e5ecda2be081d60U, 0xbe42d3b43e3fe425U,
  0x3e4573a1be694067U, 0x3e81fe3abf06bb3aU, 0xbea90d8abe75ad65U, 0xbde6f18abed26ae6U,
  0xbdbc29f3bc86c97eU, 0xbe8c16753d47f35eU, 0x3f1bac9e3db7660dU, 0x3e4c9be13dbe2cb5U,
  0xbe02feaf3e5d8518U, 0xbedf01c7be982623U, 0xbecd01bebe12cba2U, 0x3df4db4f3dbc1c79U,
  0x3d55f1bbbcda5f66U, 0x3d6895c23d809420U, 0xbd1661db3ed97999U, 0x3cbe4a433ce34235U,
  0xbea796a13d898d45U, 0x3dfc05b43e5ad612U, 0x3eaee037beae3a61U, 0x3ebfaa713e849ed9U,
  0x3d72b3dabde17258U, 0xbcbbdf7cbf10c882U, 0xbc2f30463e04f29dU, 0xbe8fc02bbe45aa5fU,
  0xbdc93cf03e0e7aa4U, 0xbeb0105abe55063dU, 0xbf0cba61be2e552fU, 0x3da5a8013e013dd3U,
  0xbea3c49c3d1841d6U, 0x3e340772becb21bcU, 0xbe1f39563e181096U, 0xbeb96b68be94d0b9U,
  0x3d3e92b5bde0db94U, 0x3e756146bd035800U, 0x3e23bb3dbeb16c76U, 0xbe4fbe863e4406c3U,
  0x3dc77ce4be12ab4bU, 0x3e44e3523ede28f0U, 0x3ad16f11bd819781U, 0xbd9b749f3ea07bc3U,
  0xbe6872393debdd5dU, 0xbea6dc5e3f2fbf80U, 0xbdf03929bda29cc0U, 0xbebc61843ebdeeb2U,
  0x3d649aa3be18d8faU, 0x3e54c3273e5d3cafU, 0xbe62699e3c460ceeU, 0x3ed6eb88bdde6333U,
  0x3e5a144dbee26443U, 0x3e2092cf3eb41092U, 0xbdcf8528be233755U, 0x3eba2da63f0bf22eU,
  0x3e8cdd00be8c5e38U, 0xbf0a732dbe51e89bU, 0xbcd26f88bee5ace6U, 0xbe432d653d038de6U,
  0xbcb83fd23d81be0fU, 0xbeab34f5bef4b497U, 0xbe8295b9bea7b569U, 0x3ea953c7be0bf62eU,
  0xbd4a88123de3cf13U, 0xbe65134dbebe49e9U, 0x3f1e378d3c14ebbcU, 0x3df6767cbe901306U,
  0xbcff21af3e071fb2U, 0x3ea13fe23ec100eaU, 0x3a98dd043d9e949cU, 0x3dd7e78e3e0f1253U,
  0xbe5379383e90eaa8U, 0x3e17bd5dbcfcc83dU, 0xbce28d873e4d7703U, 0x3e25d9393e6e7fe6U,
  0xbdb0e20a3eab485fU, 0xbe7b6182bee06063U, 0xbde12352be6de015U, 0xbe0f4826be35f65dU,
  0xbec93615be8d503dU, 0x3e04d1b4bf319101U, 0xbf1ef009bf097bdfU, 0xbe6a5f51bf27e15aU,
  0xbe0c96babf01fe74U, 0xbd73863fbe4673c0U, 0xbedf07613d29b349U, 0xbecd9d8cbf183381U,
  0x3ea43129bedddf99U, 0xbf1ec580bed83831U, 0xbe2a05a9bf090da6U, 0xbf30571a3e176570U,
  0xbf0c97c2bb00c383U, 0xbf057e67bf2d4f46U, 0x3ee4bbe23d20e35aU, 0xbf39c638bda1d2c0U,
  0xbf20419ebf0637dbU, 0xbf107af5bf2a5e2eU, 0xbd8f67153e58ee46U, 0xbf3834e83e4d4e0fU,
  0xbec5e168bebdbc39U, 0x3d8d90c0be8d721cU, 0xbd57f91b3e604e8eU, 0x3e979a643cdc1f65U,
  0x3ded090bbf196ff1U, 0x3e7087fabec005d6U, 0xbf2c2021beb150aeU, 0xbd9cee61bf3234f5U,
  0xbea0bef4befaceb2U, 0x3e29d0083ed5b5a2U, 0xbf0bb44c3df5261eU, 0x3ce8dd68bf3b23b6U,
  0xbeb671ccbe6120adU, 0x3e29adf4be5b942bU, 0xbe6337793bb164f2U, 0xbd54f954bf3948fcU,
  0x3c75ae773eda484bU, 0x3de40a6fbf161e9aU, 0xbc1419f3bfb1a05aU, 0x3d34721d3d6491dcU,
  0x3e8bb27a3e36e3caU, 0x3dd1e0d2bcf0de4aU, 0xbf2fdc93be441127U, 0xbe34e4f5bdea25b5U,
  0x3e7ef6da3c8cb506U, 0x3d81a681bd12ad0eU, 0x3a8a177d3d5a6156U, 0x3e592bffbd965a1aU,
  0xbea484eb3df37837U, 0xbdb0effcbf0278fcU, 0x3d0b4ec33dcb3e0fU, 0xbdbb20c7bdec780bU,
  0x3ea3d0f53cc52ecdU, 0xbd11ca043e8b04a4U, 0x3df426443edf8cfdU, 0xbef77ef63e0f2fe3U,
  0x3d13c9f6bda429daU, 0xbf28fe5fbdf95bb8U, 0x3ebb3f2e3e8218c1U, 0xbc9d003f3f1cf96cU,
  0x3de8aa683e3af521U, 0x3da65e8dbf1842b5U, 0x3efe849a3d02f8eeU, 0xbf9bccc93e42142aU,
  0xbe9352993d9e9134U, 0xbf0d7c1c3d6e695eU, 0x3dce2721be73b3b7U, 0xbc2fe353bd79ce65U,
  0x3e277056be3ed0efU, 0xbe06287cbe079e0eU, 0x3ea49e32bf10635dU, 0xbd9407f03e3ed404U,
  0xbd9432103e542ebcU, 0x3ccae8e83e1f13a6U, 0xbe987bb6be08a6f4U, 0x3e423f413d3fc18fU,
  0xbdd7c4083dc8e644U, 0x3e59b549bc16e379U, 0x3d6254723e41b514U, 0x3ed16d2ebe08ccfaU,
  0xbea3b5b73e807197U, 0xbe115dafbdbcaac3U, 0xbe2c11e13dceed08U, 0xbe28f3dd3e908e47U,
  0x3e918e0e3e744b6cU, 0xbecb12bc3c7ddff1U, 0xbe5122013e86faeaU, 0xbea6df1c3cf15672U,
  0xbe0559903db53c21U, 0xbe812d37bd966779U, 0x3f0fbbc73dbf79e5U, 0x3e1544ce3f83e29fU,
  0xbe58b730bed2c558U, 0x3b9485afbf5d45b8U, 0x3ed7e465bae14743U, 0xbf2d697b3e836f14U,
  0xbe8f29ee3e17578eU, 0x3ee9223dbf10dbcbU, 0xbcd0e094bd6b947cU, 0xbc046398be32b27eU,
  0xbd7af6e0bdd1a248U, 0x3e2d0bf2bddc99deU, 0xbd99af8fbd165f53U, 0xbe08c15ebf0be9f0U,
  0x3e121fab3d471e15U, 0xbf9f17213c35b69dU, 0x3d68e70cbcbfc7a6U, 0x3dcbca913e4a1330U,
  0x3d656cbb3d7a3e87U, 0xbf668e80bee6286dU, 0x3d463a0a3e7aa0faU, 0xbf98a48fbf2e2a51U,
  0xbde1e563bd95af1dU, 0xbd37d987bd8e5addU, 0x3d906328bce543c6U, 0x3d71c744bceb2c2aU,
  0x3e13727c3e897a8fU, 0xbe7de216bd625f06U, 0x3eba977fbe64d173U, 0x3eab50433e899eccU,
  0x3ca49b5e3d2154daU, 0x3e09d7e73da20a74U, 0xbcae4ee33d976fdeU, 0x3c64f96bbead4cbaU,
  0xbda38c753cee747fU, 0x3f46489abea85418U, 0xbee810563e647507U, 0xbd0b6d30bf76662aU,
  0xbeeed383bec6f3a7U, 0xbe8b48c93eaa91dcU, 0x3ebedcb73e09e12fU, 0x3dbe2c7b3e01e66aU,
  0xbf16fc34bf0b4270U, 0xbf2a131abe01bc88U, 0xbec6135ebe5cf749U, 0x3e8151a53ea1a8d3U,
  0xbf1e597fbfbbe41eU, 0x3ebcb4e13e0d9b53U, 0xbee915d63ee9f155U, 0x3e504a34bf1ffa10U,
  0x3eac18663f08d0d5U, 0x3ed907a13ec68d13U, 0x3e2d9954be60780fU, 0x3e7376c8be91bb29U,
  0x3e8a88d9becf5ab3U, 0x3ecdbdaf397c81f8U, 0xbf608c68bf4803a0U, 0x3eaf0fd03e0c17d7U,
  0xbd4282d5bf06365cU, 0xbf06c45d3d767493U, 0xbedbfaa2be13b19eU, 0xbd91aebcbf6e25a3U,
  0xbe1c09f73e239a50U, 0xbe00d880be3df168U, 0xbf865c40bc11b242U, 0x3e83283ebf853faaU,
  0xbe4e7e81be76029fU, 0xbe7319a2bf3dd0d2U, 0x3dcc893abf0f2fa0U, 0xbf3ba7aa3e174a28U,
  0x3f6906e43e530c44U, 0x3e9a8698be4d6e23U, 0xbf4364853e9aad4fU, 0xbd297c0abfd92419U,
  0x3d22a2883be3fcf2U, 0xbddff9d2bd4e763dU, 0xbedb0b6d3dc73007U, 0x3d34facf3db9a0cbU,
  0x3d3a7b99bdd30652U, 0x3ec8ddb0bd90d844U, 0x3f3f9e56bf0db761U, 0xbf9a3e86bd0d80c8U,
  0x3e173a5b3b464df7U, 0x3e60b24539fc8d37U, 0xbd2875bdbe037caeU, 0xbd8440763bc2538fU,
  0xbf8ee9843cca5a40U, 0xbf1f9689bfa4c0e9U, 0x3ec1d4a03e685b54U, 0x3c0d1055bdb2fb63U,
  0xbd6607053c17fe55U, 0x3f5ae8603e1f7d03U, 0x3f2e37aabc825ed1U, 0xbd3c6111bbed7f79U,
  0x3eb764f3befe7599U, 0x3ca1b7fcbe309ee9U, 0x3eccc5233cc02e21U, 0x3d43c9b93e37d1fcU,
  0x3b647ff7be875644U, 0x3e5fb4dd3f3a6772U, 0xbeaaf13bbd4d58f1U, 0xbe20b08abd17e35eU,
  0x3f0680c13f65308eU, 0xbd37fd78be83d282U, 0xbe40cc40be770980U, 0xbcf7988cbf13d246U,
  0x3e2b7b983e024f1fU, 0x3d574ac1bd3018d0U, 0xbe02f37fbea1123cU, 0xbd5f9d93bea14b19U,
  0xba9edb293e9a699fU, 0xbeed59d7be128e16U, 0x3e459df5be1f26c6U, 0xbe7d008ebbffb2f3U,
  0xbef7e3b4bd73f263U, 0x3e10cbb7be9a912fU, 0xbc2536883df52df9U, 0xbe6b8f7cbc802615U,
  0xbe05e42cbe04d6e2U, 0xbe0eb624be8416a4U, 0x3ed89b0f3f8c921cU, 0xbf123172bc3548d6U,
  0x3d185e993e6c5db0U, 0x3d730cd23e28a785U, 0xbeb8bc053c50701dU, 0x3dd50ace3c979230U,
  0x3e68edddbdf305c0U, 0x3d533b13bfb38fdaU, 0x3e22fbc0bfb18b16U, 0xbdbfcad83f7aeaa7U,
  0x3ef4b68d3d893397U, 0x3ec9ecb63ea37917U, 0xbda3b628bcf1443aU, 0xbd0839ebbe90b8e0U,
  0xbdf660f13d53e51bU, 0x3bd324aabe355174U, 0x3e8e5feabc13428aU, 0x3cf3a63b3eb24239U,
  0xbe92d6333c8dd561U, 0xbf3386463dd00722U, 0xbe9792723dc172b7U, 0x3e578a153ea07af8U,
  0xbe0962223d0cfcabU, 0x3be13a0d3e193c4bU, 0xbdb16c1c3eb2e293U, 0x3eea9c4dbf08fe03U,
  0xbe61e9b63f134b4dU, 0xbdf134ecbdd84894U, 0x3f351c8bbf04ed84U, 0x3f351fe53e1d5e45U,
  0x3e9a7725bc082eb9U, 0x3ed2eec93f043494U, 0xbd2f150e3e4f9d0bU, 0xbe9e5a743e5b1fafU,
  0x3e2411973df9f35cU, 0xbd49b7fd3d3abaafU, 0x3b5c93013d3e4979U, 0xbd81757ebe482c66U,
  0x3e0707763e95b8baU, 0xbdc26e09bd5305e4U, 0xbd27a5e1bcdce635U, 0x3ea7cdd83e4eeef0U,
  0x3f0d0189beb65362U, 0xbe887a063d964c5eU, 0x3ea79dc7bf85ec5dU, 0x3dd4a44a3ed2266fU,
  0x3d7b8adb3e0110d1U, 0xbf0352ddbe21b758U, 0x3db142573de06f92U, 0x3d0df582bdf31a3dU,
  0x3e8781f8bc444c50U, 0x3e5973c1bf8c8d8aU, 0xbd4c5421bf19b7d1U, 0x3d1a9ef13e5baf61U,
  0x3d00f7163d005250U, 0x3ef6db91bdba0d50U, 0x3d85b0713e0a8127U, 0xbe273144bf1c9539U,
  0xbbdf85e8bc8da47eU, 0x3e93e010bd55460aU, 0x3dc2ad75bedef695U, 0x3d2fb7ec3ea2efa9U,
  0xbd0543d63abd3589U, 0x3eaf1c73be191023U, 0x3ea25444bd4cb8c7U, 0x3e81e7b63e9359aeU,
  0xbf1f7a74beb41201U, 0xbd3e6be4bca28787U, 0xbe868f91bf2ae56aU, 0x3e39156c3d9ff101U,
  0xbe193f36be1d7a22U, 0x3d84d195be9858c5U, 0x3e07b2e13c32eb1fU, 0xbdbcf2c53e030fccU,
  0xbfb6ea483e865881U, 0xbe126d0a3cbb5dbcU, 0x3f1941c3bf30ae12U, 0xbf3dbaa33d89cbe5U,
  0x3ecf97733f145289U, 0x3cbe9f2bbf39d1ceU, 0xbf85507dbd67ff2bU, 0xbd0406c8bff64c21U,
  0xbc4c62c2bea487ceU, 0xbe69e5a1bd11030bU, 0xbe8306ed3c553efaU, 0xbd94314e3dc0145bU,
  0xbdda81ac3eadfe2dU, 0x3d1e8e463de53e2aU, 0xbcd4198dbf520506U, 0xbfc0c318bd11ec7eU,
  0xbeaae2f43e3e08a7U, 0x3d66020cbea92514U, 0x3e3daa54bd6caf0bU, 0x3e2f5e173cdb92d5U,
  0xbfcad6513d63e2c9U, 0xbf564c3cbfc0e0c6U, 0x3e1a79a43f171ac7U, 0xbf1602dd3e3ba5bfU,
  0xbea2513e3ba8f3a4U, 0x3c8f98f0bcf007d7U, 0xbd9606d8bcc9e883U, 0x3bb49f9bbddea149U,
  0x3b5cdc6bbf79c200U, 0x3cc2ab44bc00a39dU, 0xbd90f28f3d23fdedU, 0x3e8ac7b63f99e7fbU,
  0xbd2d5986beefd244U, 0xbe7f63173becf87aU, 0x3e856292bd39ab82U, 0xbbf0bd763e1a937bU,
  0xbee108abbe6022b2U, 0x3d024b213dd126e6U, 0xbe2efb253c36bf4eU, 0xbe3585cabe5dfadcU,
  0xbf09e288bec219ccU, 0xbeea62783c713d32U, 0xbe84aa5a3cb39362U, 0x3e09aa6d3dff3922U,
  0xbdc8871abdb71097U, 0x3e25605cbf0b1615U, 0xbc2138d7bd84ec2bU, 0xbed069ac3e172d00U,
  0xbcddc5c3bf9456a0U, 0x3e9a8fd43e58655eU, 0xbed05922becc0f36U, 0x3d703cac3ec0e7d3U,
  0xbe384271bf9162b6U, 0xbe0eb38a3d390dfeU, 0x3d8854c5bf7ec931U, 0xbd0eb3d8bf2bfe0aU,
  0xbec371783d01cad5U, 0xbd73776fbb602785U, 0x3e24bdd8be0005c5U, 0x3c163fd03e95756bU,
  0xbd11ebd0bf1d22c4U, 0x3d0823bd3e652d2fU, 0x3d9f052d3d452842U, 0xbfd65942bf1de4c4U,
  0xbf39298abdc1ce09U, 0xbe2689c93da86eb3U, 0xbf2d321f3e1fe9a0U, 0x3e0bf5503e0ca551U,
  0xbe899cc4bf5ed7cdU, 0xbd0ae0e33effeb98U, 0x3d8b62c13d772f3bU, 0xbec5c2bc3e605c95U,
  0xbefc7230bec42406U, 0xbf0113233d7acc2eU, 0xbdf5f3363d302636U, 0x3d328676bddfd563U,
  0xbf8a7f2e3daf374fU, 0x3de1c40ebf389675U, 0x3d9cbdadbe888cafU, 0xbe4960af3c7ffee1U,
  0x3e62bf90bfb06294U, 0x3e87bfe53e83278cU, 0xc0004fce3e569f5aU, 0xbe9203513c56ad78U,
  0x3e203686bf24880aU, 0xbf0e2b343e869173U, 0x3e223ef8bf4dffdaU, 0x3ed82d50bf8b8ab6U,
  0xbdc199693e6d1309U, 0x3c4fc5a73d10d3a4U, 0x3d9283603db72c35U, 0x3d40c5efbd5329bbU,
  0xbda36cc0be717462U, 0x3cc0bffe3de2e1baU, 0x3c3113143de5c96dU, 0xbf9f6a2dbee28dacU,
  0xbf08158abd839ed9U, 0x3c628daa3bc637cfU, 0xbef55a943d8a0072U, 0xbcfad636bd1e08cfU,
  0xbec35bacbf0f9decU, 0xbf1b32783ed83427U, 0x3eed31683e01c520U, 0x3cbc4bc03db31a9bU,
  0x3e0eecc5bd204467U, 0x3e9520d73e549bb5U, 0x3e1dee743d1cc993U, 0xbe1694953e298933U,
  0xbd3ed6993f49ff00U, 0x3dfe16d4be29123dU, 0xbea364c83e900be1U, 0x3e263b143bf7c65dU,
  0xbbe767cebe6406d3U, 0xbe77c8bc3e02c442U, 0xbe744b063d6f8d83U, 0x3f2b867bbcc66a63U,
  0x3f148eabbe23523aU, 0x3ed89c183ebdeafaU, 0xbe81642abf13bfe8U, 0x3e7afbc9be5a7ea4U,
  0x3ea26d363c7edc34U, 0xbf5711653d45dfacU, 0xbba9c2723e05dabeU, 0xbc830669bd8774ebU,
  0x3c5674363ecd9b5bU, 0xbc13b27bbd962fa7U, 0xbdb5c7c43d9c6a31U, 0xbe55b16d3d3c2b48U,
  0x3e7b8e5b3e484273U, 0xbf3113f3bf4641b4U, 0x3e9924443d1855afU, 0x3dcccb553e6f0dc0U,
  0x3ede8be33e73356aU, 0x3cf291afbf8f93e3U, 0xbf17f236be9a44ddU, 0xbcd040b7bfc0597fU,
  0xbd3bc820bdb9815bU, 0x3d1604a6bd0ef5d0U, 0xbefff5423ceb6b57U, 0x3e5d960dbe18dbf7U,
  0x3bad8c43bda0d918U, 0xbc71c29d3ba3e116U, 0x3e2a7bdcbeecea0bU, 0xbf825a2cbcdb2422U,
  0xbf0dd854bd1a490cU, 0x3d58766cbf5917d5U, 0x3c31e963bc8c21c2U, 0xbe65bfdbbd154c43U,
  0xbfaad786bd84fbd0U, 0xbf5b8c2bbfaf9fb8U, 0x3c7c48ba3f0bbb45U, 0xbfb372133d7cf8a3U,
  0xbd24f266be37d1b4U, 0xbd6af92ebd69dd5eU, 0xbdd2eccbbdaa8f40U, 0x3d877f16bd0a7875U,
  0x3e37315abed45bd1U, 0xbbd40adabe5210e0U, 0xbf032ee3bc9bceebU, 0xbba3aed2becf8f52U,
  0xbc7e15d3be16efe6U, 0x3dc7690c3e169c68U, 0xbf056850bd3de15cU, 0xbcfc0406bd7a3979U,
  0xbeff05bcbf669a86U, 0x3d22534b3ee005f2U, 0x3eb6e3483e43fc8aU, 0x3e3c00693f5b7d5fU,
  0x3bdbda0fbc474db2U, 0x3d3986bd3e2d949aU, 0x3e0cace8bccc5f61U, 0x3da06e453d67d9f0U,
  0x3d9a4c17bf7a8d28U, 0x3ea66941bcb75bcdU, 0xbf124f113eb23198U, 0x3f03f0f93cb3b31bU,
  0x3ca023b43e416d68U, 0xbd81109c3e99ed10U, 0x3d8b20b0bef9c648U, 0x3e91f9c63cb5f186U,
  0x3ef4279ebe212906U, 0x3eab1e2a3f39eda0U, 0xbf7cfaf1bf5d5516U, 0x3e243c8bbdf447d6U,
  0x3e210fad3dc1963cU, 0xbfb16936bdf50118U, 0xbf925155bed5c994U, 0xbde07aa0bd03cd0dU,
  0x3df8953f3ea2a88cU, 0xbe7a4818bc12fcb3U, 0xbf038148bdf95e83U, 0x3d83d534bf612a7aU,
  0xbbbd7facbda89ddcU, 0xbf903c06bfa97e11U, 0x3e9a4af4bd63f7a4U, 0x3e0341353ed35bbaU,
  0xbd46c3c8bcba19fdU, 0xbf3483173e3ce590U, 0xbf06d2943e2b06a6U, 0xbf350e60bebf096eU,
  0x3e49dfe53eedbeb6U, 0x3eb47670bf31c865U, 0xbc2f0ef6bf4b5362U, 0x3de3e7603df2c0c4U,
  0x3b4c087cbc8fb517U, 0x3e2399d23db93273U, 0xbc850f83be98b766U, 0xbed0173fbf7a6e31U,
  0x3e0cda55bdef2399U, 0x3ea8091f3e9071c9U, 0x3bb9cb7fbe8b5c6dU, 0x3e5617ce3e38cfbcU,
  0xbda3bdce3e02a9d0U, 0x3e33e7d6be910addU, 0x3dc48fe63e2d50cdU, 0xbdb732d33c83d04fU,
  0xbe3c989abecc1133U, 0xbdcd4c9c3b9d91f4U, 0x3d6dbc96be0f1a2eU, 0xbe91da273e9cc3f8U,
  0x3ddb629ebdbe9eabU, 0xbdffa38dbf9115abU, 0x3e48e096be55cea6U, 0x3dc5d5a13e9a9d66U,
  0xbd7872013e2d5e1fU, 0xbe61af0ebd629850U, 0x3ec83235bf7a088cU, 0xbf8c2e273ea65959U,
  0xbeb046ae3f8fc976U, 0xbe7000133da01b4bU, 0xbe390aa33e8f60ebU, 0x3c64d7c5bf0364baU,
  0xbef11b5dbe0b89a0U, 0x3d23c9083cfb4873U, 0xbdf2a2b13d9af19bU, 0x3e860cf3bdd80569U,
  0x3ddde4a63e3cb67aU, 0x3ebe558bbe6b942fU, 0x3f171bf63b5f7096U, 0xbed301833c196938U,
  0xbe094dd8bd320c3fU, 0x3dbae2ae3ec129b9U, 0x3de261ccbda9eafcU, 0xbe720e4dbeff7dd6U,
  0xbf30ca8fbf222f6fU, 0xbea191f2befccd08U, 0x3f8735bb3e72e362U, 0x3d5cde2ebc5fda2eU,
  0xbd7ed755bee5fddfU, 0xbeeac3dc3f0ef38bU, 0x3cab05b03e704384U, 0x3cdc7e273dc7bd49U,
  0x3f69a78bbd992315U, 0x3e028f1dbe4c9600U, 0x3cf989d7be9a3fbdU, 0xbe4024ab3eb6323aU,
  0x3d92fc173e9b21f7U, 0x3c3c35583eabc32fU, 0xbed4e970bca3b0e3U, 0x3e0d1addbe792cbeU,
  0x3c99305ebea60ca5U, 0x3cabb7263e96160fU, 0x3e9873fe3e10604aU, 0x3d68b7763ed7cabbU,
  0xbf6f1767be4625adU, 0xbe7407723da074caU, 0x3e362c33be5672afU, 0x3bc3fa9d3e47f16cU,
  0xbf5e8d21bf9e0277U, 0xbebee0113c732492U, 0xbd934ec93e6ed9c5U, 0x3eb3618cbe0489c2U,
  0x3d72ee343c5de093U, 0x3d81cf133c2ed3a1U, 0x3d836421bed024a7U, 0x3e857e4d3c6d1c09U,
  0x3eee35bdbf4e4c91U, 0x3eb77f923ec1773dU, 0xbd4e6da9bf2051a7U, 0x3e9d58ca3ceb287aU,
  0xbd7424f5bf9a5fdcU, 0xbe4d66e23d4e7918U, 0xbe9f309dbf11c08fU, 0xbf8baf9abe272488U,
  0x3e00966c3e667f6eU, 0xbf826ff23e10b8cdU, 0xbf5864dc3df98683U, 0xbf4f7fbcbf9cfeb5U,
  0x3dcc808a3df0fde0U, 0xbf1e7bd9bd4f6ba1U, 0x3e1822313be4bbdcU, 0xbecef2033e2b46e6U,
  0xbdca4befbdc214f5U, 0x3eed813dbdf06f99U, 0xbe933a3ebda10bdeU, 0x3d489234bf0c3eb6U,
  0xbd55216bbf147bbdU, 0xbcf52c773e8757f3U, 0xbe6a53953f7260f5U, 0x3b0fc0f1bea079b5U,
  0xbc43b079bd86c799U, 0xbd61ec9cbbcaeb88U, 0xbd91bf16be07cd83U, 0xbed9c9473f334412U,
  0xbd5d4c9bbdbb2adeU, 0xbe06795dbea459dcU, 0x3cb902363f21798eU, 0xbea437b3bd567471U,
  0xbf1cf6a1be229fc6U, 0xbea5f6b5bed8ea4eU, 0xbd95804dbd9c829cU, 0xbe55afdc3d028453U,
  0x3d4e2c51be84f894U, 0xbcddb363bd06a330U, 0x3e91bee33ecaa157U, 0x3f2f8e3b3e1b72f1U,
  0xbda960fdbe81c3d1U, 0x3f200263bdb5f6fbU, 0x3d4995b3bcd744bcU, 0xbd9285fabf224ac0U,
  0xbdc16564be7d912aU, 0x3f2586763e0ccee3U, 0xbf80e6f53ee38d2eU, 0x3eb6c1d7beb17fa5U,
  0x3d9458f5bf0d96a7U, 0x3ef09ca0bea11a04U, 0x3e9d67313d8263e6U, 0x3f3436ecbed40dd3U,
  0x3e2a1fdd3cad7748U, 0xbe23362cbe4b5295U, 0xbde2fd2ebe62c598U, 0x3d392cc23e9c62ccU,
  0x3affd6a1bf5c9ffdU, 0xbf507a303e465b87U, 0xbd8b95a63f5e2270U, 0xbe8552afbdacdd51U,
  0x3dfbd2cf3cabd2a3U, 0xbe873518be98498cU, 0x3eb5d4513e7f58d2U, 0x3d06895cbe7a681aU,
  0xbe82bd8d3e133f3aU, 0x3c7b02c9bee28fc9U, 0xbf0a55e6bf0fac76U, 0x3d413ba43f040174U,
  0x3ee128b43e90a12bU, 0xbabea3d6be0087bfU, 0xbd82f205bd40781aU, 0x3e765688bdcd64edU,
  0xbd933d7c3ea052dfU, 0x3c0b5b183d9622d2U, 0xbeb93b4fbe055ae1U, 0x3d474326bf962f8bU,
  0xbe98b34cbd9c117fU, 0x3ed9e228bbe0bf4bU, 0xbee9638abcf5ec6eU, 0xbe42c0923d430d31U,
  0xbe40da2abe0c3243U, 0x3ddbbc533ecb4deeU, 0x3ed68c833d09b529U, 0x3e4371d53eefdb4eU,
  0xbd8389623ea0be58U, 0x3d7f09093e33f00fU, 0x3db177083d9a6ed8U, 0x3e8f35263ec78f24U,
  0xbf9a91293e8414feU, 0xbdde5e53bcd8fde7U, 0x3e59fe053f0c732cU, 0x3f089e75bcc8bda2U,
  0x3e7d26dbbe2457ceU, 0x3e41534b3ee051ecU, 0xbe3a8d4f3e6fe106U, 0x3e31d9eb3e846bedU,
  0x3f1d3a003e0c3477U, 0x3f0336fe3f405ad8U, 0x3e843e99be7c03aaU, 0x3de14884be36794eU,
  0x3e261fb83db1a0dbU, 0x3e6c6a25bdaec2f1U, 0xbe6dfb2abdce0e9eU, 0x3e1530fbbe7d4625U,
  0xbdd8f11a3f424a08U, 0x3e4822ed3d0b790bU, 0x3e0cee063da770aeU, 0xbf7f1bfd3ef3734eU,
  0x3e9ba586bcbccd30U, 0xbdc4d484be915258U, 0xbcde90e03d2d1e1eU, 0x3d4e6d1b3cb4173cU,
  0xbce852c6bcd0c8b7U, 0x3ec000243dd353bcU, 0x3f4cbf92be0b8b98U, 0x3f517c6e3f160656U,
  0xbdd1efa3be8f3689U, 0x3c87970d3f447391U, 0xbd684c413f1e307dU, 0xba324dc1be8b1939U,
  0xbd4152a2bde04e49U, 0xbd252b423d8a50eaU, 0xbdbd43753f19c563U, 0x3f32ac283f6a8021U,
  0x3d03ccd7bd67645dU, 0xbdc5bbd5bdccca96U, 0x3cec09ed3e91791eU, 0xbea15d22bd8bd96aU,
  0x3e224babbe7e052aU, 0x3cca45973ed68bd6U, 0xbd32303bbd6ee98cU, 0x3ccc70623db95a90U,
  0x3f2fac243e59a1eeU, 0xbcd2149fbc567a3bU, 0xbd6cebf53e849728U, 0x3e89a35fbd6ebc09U,
  0xbce9e8e53ecd82e9U, 0x3dbdf6913f22c835U, 0xbd2ae3373dbe0012U, 0xbd2dfb9abf180d28U,
  0xbd5122bbbc2dfeacU, 0x3ef6aac03e5be725U, 0xbef35c763f28dc36U, 0x3f6b61debe0ca602U,
  0x3ebf6bda3f4e2f47U, 0x3dd742843da8f608U, 0xbd8014e53fa8342dU, 0x3c5c50d0be66b8d5U,
  0xbce6d704be59d1d9U, 0xbe0ddf87bdca7a65U, 0xbd9fe53b3dd269d4U, 0x3ff543b23f2b0437U,
  0x3c2dd2cebed0f1bcU, 0x3ca5eb9f3c9b430bU, 0x3e161fc43d50688eU, 0xbe569995bd9aba8dU,
  0x3f99203dbca5966aU, 0x3f99b76c3f0ea237U, 0xbd27e133be5455a1U, 0x3ef5ca83bd1e2ea0U,
  0xbea68c343da46998U, 0xbdbcc306be8c5228U, 0x3f3e04c6bee3fe80U, 0x3fc9e41d3c9dc101U,
  0xbe68e1b0bdbc42a3U, 0x3f8f2d453fac2fc2U, 0x3e04d1f63e787e72U, 0xbd8c6106bc93b8c8U,
  0x3facbaabbe4076daU, 0xbd3404193c350763U, 0xbf315ec73dae267fU, 0x3d8b03833bd058f5U,
  0x3fb79b62bd1837b8U, 0x3d91bc553f5237abU, 0x3d84995ebd9ea11dU, 0xbd9c67e43e84e8b6U,
  0x3e069d3fbe509131U, 0xbee4198d3f0c8757U, 0xbf09b7f93e34525aU, 0xbe927e25be6dbcaeU,
  0xbc56462cbe771c6aU, 0xbf38bd103d975daeU, 0x3d3af99f3d0d78f1U, 0x3da59a0abe899802U,
  0xbf2ac8dbbd952b57U, 0xbdaf36eabf3e24c9U, 0xbc9d1c43bf539566U, 0xbeed97c73e8e84e8U,
  0x3ece744dbf58aecdU, 0x3e6663493ec1916fU, 0xc00fd4edbebefaf9U, 0xbe394ff23de6a75dU,
  0xbe7e275abdc4a5aeU, 0xbf5514c7bd3c9003U, 0x3d93141abf4c9832U, 0x3f025da9bfb3082cU,
  0xbd954fd73e3c08abU, 0xbd0bdcdd3dca0da7U, 0x3e0a2adcbd3d4c58U, 0x3e5455d5bde0297aU,
  0xbdd860a6be7e1d16U, 0x3e3b727e3e8096c4U, 0x3d9e30e63e2c0fd4U, 0xbf975429bf3e9960U,
  0xbf2f5336be264196U, 0x3df21a073cd2a746U, 0xbf58cf2c3e90db23U, 0x3d9d6d6dbe8f7b1aU,
  0xbe6ad02bbe1d486aU, 0xbeb8eda33e88e92eU, 0x3e43f65b3e03c999U, 0x3dc6fd3a3d839db6U,
  0xbf23638ebf40b6a2U, 0xbf1ad952be196c77U, 0x3e1ee695beb9c29eU, 0x3dcfba363db92f4bU,
  0xbecd14fa3dcd2b75U, 0xbf432d0e3ef892e6U, 0xbe1c5a343db41a6dU, 0x3e2c8f10bf8d4031U,
  0x3f07dcdc3f41ce62U, 0x3f00b17b3e410463U, 0x3dde928bbee9d586U, 0x3edda0e9bf69a8eeU,
  0x3d5fae1fbf35d934U, 0xbb9edef23e7cafbfU, 0xbe00695bbe9aaa51U, 0x3f0797b73e8a700dU,
  0x3e702a6ebed28fe5U, 0x3dd5c0b33c7ec2f2U, 0x3d195d373dfe7957U, 0xbb63265cbfb138d0U,
  0xbb70de4a3e8cb5baU, 0x3d068eb7be9190b6U, 0xbe08ca19be2863b1U, 0x3dba85563f1e9ae5U,
  0x3ee7dcbe3d927a8eU, 0xbe1b891fbedb2918U, 0x3f7feb38bf84f4cdU, 0xbf38b07e3e89bb5dU,
  0xbd55135bbda341e2U, 0x3e983e5dbf9a922fU, 0xbd13ca50bef3e5daU, 0x3e059049be815c2eU,
  0x3d101e86bed4d740U, 0x3c8a0b1f3d1aa063U, 0xbe2185133ef633e0U, 0xbd56b463bf3f19daU,
  0x3c2b54953e489c6fU, 0xbed137febdd2a455U, 0xbe40935abdb18e5aU, 0x3d81c9f43ea1ba44U,
  0xbf36e86dbc9675ebU, 0xbf01b57fbf594646U, 0x3d491f373d9a454cU, 0xbf9e561bbe718d91U,
  0xbe855499bc39d425U, 0xbd723361bd7d2210U, 0x3e409b283e2849b2U, 0xbfc99fb4bd8d66e8U,
  0x3e3aef6f3f211c16U, 0xbd911041bd476894U, 0xbdd75da43e6fb1adU, 0x3e28e6b13d1ea605U,
  0x3daaa4813e0a446fU, 0x3e039744be1b9d45U, 0x3c2347483b1cd673U, 0x3bcf7804bde09eb7U,
  0xbdc4e39dbe1cc68cU, 0x3d1c2a77bd3d0b2dU, 0xbf3ba0203e43c7e8U, 0xbd94e70abf9390afU,
  0x3dd260d63d50dd32U, 0xbedbad003e4a3177U, 0xbf5ce3a73d0ccba3U, 0xbf33ebc2bf9bb79cU,
  0xbd47c9a73ed9ccafU, 0xbecd1339bee31abaU, 0xbc72d5eebeb72261U, 0x3da20c913eb7c248U,
  0x3d703edd3e9418ecU, 0x3e5441763dc1f84aU, 0xbc9f319fbf22f0a7U, 0xbf33c8babfd2ade4U,
  0x3e345f0f3a8bd500U, 0x3e2bc1f33e8d5fa9U, 0x3ca31ab4bd2acef4U, 0x3e900eb3bdd4bea7U,
  0xbf170c963c27487aU, 0xbeb1834dbf30f5e6U, 0x3e23886b3c7825c9U, 0x3e40fcd43c8b233fU,
  0xbea6c8b4be822c90U, 0xbca8a58d3cd4a0b9U, 0xbc4931143cd151f2U, 0xbf89f7523df24dfaU,
  0x3d94c9efbf270c40U, 0xbee821d6bf446020U, 0x3d876facbe0ed854U, 0xbd2abead3ee92789U,
  0x3d3e28313cd99d2dU, 0xbf003150bc1fd90cU, 0x3f0a60c8bfa569cfU, 0xbf8b49e93eb4829dU,
  0xbcd288df3e6ea681U, 0x3e0494c6be1af71dU, 0xbea315cf3cfd18b1U, 0x3df5f2d6be8ef65fU,
  0xbe0204b3bef97fffU, 0xbf2d0ec5bb4f4a1eU, 0xbe961502be280ee2U, 0xbdf2dd3abd33d91cU,
  0xbeb3b71abe740768U, 0xbf495d843f177105U, 0xbd03f9b0be092775U, 0xbdef7fd53bb65ad5U,
  0x3e640108bdaf4f4cU, 0xbeb14acbbe53457aU, 0x3f491a173eae441cU, 0x3f035261be8b8f15U,
  0xbe05eabebdd2e3beU, 0xbe2403bbbc99fcafU, 0x3d20019d3ea67467U, 0x3dc5afc53ec481a6U,
  0xbed04128bf3c3a03U, 0xbe10333fbcb277f4U, 0x3df35b6bbe586a8fU, 0xbdfe4a44beb29c15U,
  0x3e8c7df3bd06abbaU, 0xbd7a77eb3d986e9eU, 0xbe1f897ebd19f496U, 0x3e9f1bffbdcba270U,
  0x3f0522dcbe8c59c2U, 0x3ea917183d1ae9a5U, 0x3ead08ecbbbfcaf0U, 0x3b81240b3ee228c7U,
  0xbba891e0be283c2fU, 0x3df2ce38bfa7308cU, 0xbd0bb721be95fd2fU, 0x3e2e9912be249cb9U,
  0x3dff0dafbe8598abU, 0x3d1059e2bc452f70U, 0xbebadce33e8b3004U, 0x3d15f310bf0dc76cU,
  0xbd034accbc145df7U, 0xbe0a9469bdc4e85aU, 0xbdf2f590be018303U, 0xbe32b76f3dc668f6U,
  0xbf26bc5a3da2e275U, 0xbe73e628bf665979U, 0x3d5afb813f05a5f9U, 0xbf5fce8ebdafa157U,
  0x3c7ee3c3bd3a02b1U, 0xbe30ec67bea46a26U, 0xbdd470e63dfcbcf4U, 0xbfd1e8a4ba5a0410U,
  0x3e97d7d93f241be9U, 0xbdf0dd47ba385616U, 0xbd36650c3e64d396U, 0x3e8beae5bd86c364U,
  0xbbd6f7babdcaab25U, 0x3e9003cfbe34cbf4U, 0x3d87b7cbbe2193b8U, 0x3ce6a6e4be204787U,
  0xbc2d8172beb1c092U, 0x3dd79b88be244247U, 0xbf2b921b3dc7bae8U, 0xbdde4959bf55c1adU,
  0xbe7695d2bf8c765cU, 0xbd8f1f9abdb09f49U, 0xbd8151e1bf92d8faU, 0x3c288c863d1ff3fbU,
  0xbdf7a97d3d1d9589U, 0x3b2f91593eb17537U, 0x3e9186c33e12dad4U, 0xbf8e85dcbea0ff36U,
  0x3d3ba66abf060568U, 0xbf4066cd3e4ba03dU, 0xbe7035633d564904U, 0x3ce362d73b55ec58U,
  0xbf22b1b03b1da3c1U, 0xbf6d6e52beadc42aU, 0xbc4ec6423e42d2c7U, 0xbf621a0dbdcde098U,
  0x3e7017bc3cef039eU, 0x3d97f9283d09a3daU, 0xbf130e80bf4d18aeU, 0xbf5836b43b1c8e6dU,
  0x3c2f4676bea373e4U, 0xbeec8d4dbfdbae86U, 0x3c6d1143beb351c6U, 0xbb7410ce3e43c98eU,
  0xbf9e2b993d8ada87U, 0x3dc300b63d3e416dU, 0xbe4e739a3df89fe9U, 0x3dbc12e2be89adf1U,
  0xbf7846463c979b6eU, 0xbea9b72ebfd7142eU, 0xbaeb7754bcb94decU, 0xbc92f1a9bf33e093U,
  0x3e9be1d63eb4f8e1U, 0x3d84a595bf408160U, 0xbd802f4cbf546fedU, 0x3e2569293d7c4a18U,
  0x3d217ab1be08d7e6U, 0x3ed6d36c3e129012U, 0x3e6527783d82ef99U, 0xbea2e7febf04d8d6U,
  0x3e1718cd3e9bd612U, 0x3e3b9e673df332b0U, 0x3d3de2a1be8766fdU, 0xbd2d2b8bbbd29bf2U,
  0xbfe5a5ee3f063207U, 0x3d257cccbf5f1247U, 0xbd0464c93d860502U, 0xbf2a4f9a3e80caeaU,
  0xbd2796e83e6da1fcU, 0xbe19a842bd95d80aU, 0xbe1dc7f9bdf88793U, 0xbfac8cd1bd060393U,
  0xbe3e3867be841018U, 0x3e79129dbda6cbdcU, 0xbdbb37d1be75ca6fU, 0xbd1522203dac1aaaU,
  0xbe3c42de3d8ed91eU, 0x3d8715a33d36ed6aU, 0xbf1a7fe73e2d48fdU, 0x3ee8b06a3f6583beU,
  0xbfb42f49bd761140U, 0xbef4c5a8bb6ef583U, 0x3eaeec813dfdc38eU, 0x3dc83046bf0bad03U,
  0xbf49fcbcbf808034U, 0xbe3274983f180a63U, 0x3ed0eb573dbd1454U, 0x3da682e63f21fe28U,
  0x3d8a4f9f3dfe7bc5U, 0x3df0374b3d82357aU, 0x3e7ac07f3e0ae9e4U, 0x3d95780c3dd51bb3U,
  0xbf2faf5dbe6413e1U, 0x3e6d5ab5be199f5dU, 0x3dc76c223ea175c1U, 0x3f3a765b3e2c7ff5U,
  0xbcdc0ff3bde9f73cU, 0xbd1ee4c93e96b606U, 0xbd7261413e211bbbU, 0x3ddb0c763daef3bbU,
  0x3f4f69203e85ca24U, 0x3f2ebdc73f388481U, 0xbd5063cfbf0c8f92U, 0x3eb69e24bc14340bU,
  0x3e06538abc6b5f17U, 0x3d60d316bd1162a3U, 0xbe3c37863c83682bU, 0x3d043d46bf0c64a5U,
  0x3d3a71703ed0c029U, 0x3c20b0833ddfc8eaU, 0x3d44274fbe2fda33U, 0xbf730ebbbf8cacd9U,
  0x3dd3ad40bcae810fU, 0x3d8603b63d830e6bU, 0x3e8f3268bd8da50aU, 0x3d628d3b3e4e59bcU,
  0xbe5b51babf8f694eU, 0xbd899b3e3d682a55U, 0x3e9307033e831eb7U, 0xbd8dc5f03ee4f95dU,
  0xbcbf9d813df30ca2U, 0xbc88cdf3be20b6ffU, 0x3deb46a4be316e3aU, 0x3e27a1943ea4325eU,
  0x3dd76ac5bf90488dU, 0xbe0595413d89a00bU, 0xbf5f273b3ea6778dU, 0x3f40f016bdd7c0bcU,
  0x3c14d62d3c3ab19dU, 0x3e8d0b1b3c8e5165U, 0x3dc01c603c3e3c48U, 0x3e30350fbebebd5aU,
  0x3f2202cfbd2f0ce3U, 0x3ee548aa3edc9624U, 0xbf8c7fcfbf235a23U, 0xbe1f3f703c05a81cU,
  0x3e0cca4c3d30f0b5U, 0xbf29f597bd294f33U, 0xbf589baa3e2e9c5dU, 0xbe9681953cb47906U,
  0xbe0f28cb3eb6c68fU, 0xbf2163a63e6c88b7U, 0xbf2c2a2a3eae351cU, 0x3df154edbf755e07U,
  0xbe13bf47bd38fba2U, 0xbf594e1fbfd728e7U, 0x3d7614a3bc44d260U, 0xbec9a26c3e2a6882U,
  0xbe5c9a0ebe675b49U, 0xbc2e5f973e834f2eU, 0xbbe919283e8d9e17U, 0xbcb804b9bc1297e5U,
  0x3da1b1443e691bedU, 0xbd19c813bde16c75U, 0xbdfad4593ebddd64U, 0x3e89efe2beaff085U,
  0x3f0576dcbeb2de46U, 0xbdf391bc3f0b809fU, 0x3e2b0d2d3ee4ab76U, 0x3d1324e0bddd770dU,
  0xbeec38c83ecd5692U, 0x3f0d15ef3e8a6fabU, 0x3e6ef4113d3a892eU, 0x3d0690b9bd191522U,
  0xbf56c2ddbf033ce8U, 0x3e6a3fcebe992005U, 0xbf9895503ed08005U, 0xbeb5701dbfc219a7U,
  0x3f4092f6bef17a84U, 0x3f07e5cb3f835aedU, 0xbebfb37bbf010f59U, 0x3dc662b3bedf27ccU,
  0x3ea3c8283f147c71U, 0x3ea080d8be9eca28U, 0x3e66d21c3e6671abU, 0xbee17e933f22a782U,
  0xbf7d9485be61dabfU, 0x3d695ed8bf467d38U, 0xbf44930fbf050a8dU, 0xbe9561343e685762U,
  0x3d4e301abf805670U, 0x3ef7586cbf294707U, 0xbec15b113d79da18U, 0x3e67ec86be5c6ff3U,
  0x3eece7f7bf4995bbU, 0x3ee182673f5b1004U, 0x3f14e3abbeea4423U, 0x3e6af126bf6c0131U,
  0xbe997a893f886e6aU, 0xbd0188183e9acceaU, 0x3f218a073ee02190U, 0x3e24ba443e63d1bfU,
  0xbfad0acebebe3e4eU, 0xbef3b827be1b81e9U, 0xbf93422fbfb96833U, 0x3ea4f8543ef4d537U,
  0xbe86f02a3d2b224bU, 0x3d037c65be29552fU, 0x3ef952ad3e72c17bU, 0xbe7d0dedbdecf08aU,
  0xbe5bd48a3fb52e2eU, 0xbf67bedfbf10f0f8U, 0xbf3fc2d63f94b7a4U, 0xbe181223bdd8eb90U,
  0x3e28598abeaf6080U, 0xbf76d631bbc4901dU, 0x3be6a57e3d2d8530U, 0x3d8cea853dbaef4aU,
  0x3dbc719bbcaffbb8U, 0x3e3e3b4cbd19a3acU, 0x3edb93a8bea1b042U, 0xbf8851debfa76e23U,
  0xbf2f1490beb21b35U, 0x3f24c3a13f2a2fa7U, 0xbb6623743cdeace6U, 0xbf15c4a33e86a6d8U,
  0xbe19f6b2be0f3b6eU, 0xbe112042bf23e8ffU, 0x3f21405a3d79898fU, 0xbd881a86bf321dadU,
  0x3ef594883f6d1607U, 0x3e18b0673f7a6848U, 0x3d50eb363f302d30U, 0x3df2fea2be6f52dcU,
  0xbf5516743f3ad143U, 0x3f2fc6523e8d087aU, 0xbde0484b3b9ef9eaU, 0x3f9d424c3e81f9c4U,
  0xbececcff3f011f5aU, 0xbefd403c3f4759ccU, 0xbdf784723e509261U, 0xbec310e73bf325fdU,
  0x3e60020f3e1ac320U, 0x3eb27e1e3dd16c8dU, 0x3ebb00bdbe09ede2U, 0xbcdd37f7bd2e96c1U,
  0x3f2454b5bf8f5830U, 0x3ec371513eb040d2U, 0xbd7f34873f02b19eU, 0xbf1ba06d3e745295U,
  0xbf51b1673f125a88U, 0x3f20f9b53d1718bcU, 0x3d4ed5ee3f3bfe71U, 0x3e8b86763e8d873dU,
  0x3ecf100c3dbe2ac9U, 0x3f02f3debebf6417U, 0x3e8c665f3db8d019U, 0xbd5fcdd93ea6bf17U,
  0xbe080ff03d9c9f11U, 0x3f415daf3e8cdbcbU, 0x3efbe936be2b695aU, 0x3eb9a2033efd4613U,
  0xbe957be73f3dc2b5U, 0x3f2797983d87901bU, 0x3f0eeb2f3cdba880U, 0x3ed04e78bf197651U,
  0x3ebfe366bdf7b9b3U, 0xbccb21403e337748U, 0xbe024d11bf37e8d6U, 0x3ebd25b33f0c5299U,
  0xbf627a0e3e900bf3U, 0xbf029ab53f115c67U, 0xbe9d50453d78e995U, 0xbe6d432abe016d89U,
  0x3f1b7a44beb71155U, 0x3e9575133ef910f1U, 0x3e72ad56bdd7328cU, 0x3e2723953d4c02a1U,
  0x3ef7b8b5bf767921U, 0xbcd4c75e3d7d5ef5U, 0xbd4444043e907604U, 0xbeea7f1b3f1f7615U,
  0xbf221a703f7da120U, 0x3ea10faebe73085eU, 0x3e2a1ac13f9f5f7aU, 0xbdc79b263e196230U,
  0x3e8ddaa93eb4710dU, 0x3d92ee34bd33ce94U, 0x3f84217d3f5b3e26U, 0x3e3553973e3a1da0U,
  0x3e57349f3f8e1bd3U, 0xbef27881be901996U, 0xbf94f2133fac785cU, 0x3eee95de3f173b26U,
  0x3c84cfd3bf666f57U, 0xbe50dc573ce580c5U, 0x3e6c558dbd8df74dU, 0x3e6554b23b2fd9c4U,
  0x3fc6c8f33e6733e9U, 0x3c5f68013e8776daU, 0x3ea6d86bbf0e44feU, 0xbf2abf0bbf45b4eaU,
  0xbf3674d1be503b06U, 0x3eaefb9f3e773e16U, 0x3f05732b3f73db1dU, 0xbe9401d7be7b8263U,
  0x3f6bc0e53e98708eU, 0x3ec9f85d3f2d2866U, 0x3e93d27e3f03477eU, 0x3f123287be68db14U,
  0x3f0f09b1bf1c69a2U, 0x3ea35acdbd8c77f7U, 0x3ef6bab33e75a555U, 0x3f11bfa93f261e00U,
  0x3f1feba9bdc57564U, 0x3dd9f086bd1f3274U, 0xbe46e4cabe26f4ddU, 0x3e1634af3e5ea852U,
  0xbeb540e73daffa37U, 0xbea38316be269fc3U, 0xbe94d743bd8ec8e3U, 0xbd414adebe74a899U,
  0xbddc222d3d50fcd9U, 0xbe83661b3ddd3ef3U, 0x3d7d5d753c79a53bU, 0xbe6453babc0c3fd4U,
  0xbe71c1bfbeb57e12U, 0xbe3fde6b3dc10ec1U, 0xbd58ddfabe3fe192U, 0xbe643aabbd5dc56bU,
  0xbebb4b38bed0d803U, 0xbe2ba4babec169d8U, 0xbeb5210dbd0a6fb4U, 0x3d12c1a1bee60306U,
  0xbeed11bb3e04b282U, 0x3f02926f3db3729aU, 0x3f74cec13ffa300eU, 0xbe0311b4be097b70U,
  0x3f8490123f8aef12U, 0xbe9aa7243f1e6b33U, 0xbf0ff8f33f3b35c3U, 0x3fc6311c3e5faeb0U,
  0x3e158b37bf34dbbcU, 0x3e3212493d0b2baeU, 0x3fbc038e3d65bd69U, 0x3f5fbe983f65e8b3U,
  0x3fa6348a3d5368ffU, 0x3cb6175e3e1957a6U, 0xbdaaa38bbec49fa7U, 0xbe5130bc3db35c6cU,
  0x3f4408be3ece84fbU, 0x3d8c57ff3e8c8337U, 0x3e3a59b2bd8eb201U, 0x3ef680e53eb37becU,
  0xbf0eba4a3e7efb34U, 0x3d2d952ebf96caf5U, 0xbdab1e0c3e1c24fdU, 0xbe5d13d83e9fc0f2U,
  0x3e21d0b93f464be5U, 0x3e87ca193f40c206U, 0x3b4a9d4e3dda9374U, 0xbd7dc285bf0715a9U,
  0x3e19db843e99b2c4U, 0x3ecd35d63fa18301U, 0x3f4c2a2a3f289551U, 0x3f32c9813e47a857U,
  0x3dcf05a33f120083U, 0xbece53c6bb009b18U, 0xbdf49dca3e305cddU, 0x3ecf1cc13e01aa53U,
  0x3e19dc763e171ef6U, 0x3e25a11b3f91ba75U, 0xbc3bfd173e5edcb5U, 0xbea865823dec4820U,
  0x3de1cacdbeded2b9U, 0x3e76977bbe8c7c12U, 0x39ce17d93c88fe23U, 0xbec11a7bbfa3d6a5U,
  0x3eb045eebe0b7621U, 0x3e63e7583d871ec9U, 0x3e06a92c3f18a7efU, 0xbea7f0cb3da04c53U,
  0x3e6babf63ddf5b79U, 0x3e795f67bf79523cU, 0xbd8516db3e374f6bU, 0xbd8ebf2c3ecdeeadU,
  0xbf0688b43e569a79U, 0x3e8ec8b8bcb3477eU, 0x3e45e535bdd4960fU, 0x3e5721aa3eeaedefU,
  0xbfbf98b83f3b999bU, 0x3ddbeb9c3c0fdc1dU, 0x3da234553e235db8U, 0x3eb8b5a2be85daccU,
  0x3e8b0194bf3be07dU, 0xbf1e4bd23e888ac9U, 0xbf102333bf3f4b3bU, 0x3e09de33be175ae3U,
  0x3efc77b43ea62737U, 0xbf938485bdd7cf68U, 0xbf83c339bd535288U, 0x3e117ddbbeb62334U,
  0xbdd33dccbfbd4a9eU, 0x3c0358493ea1d112U, 0xbdc3d5e7bf4a0ffeU, 0xbd5c66e73eff232dU,
  0x3e95b5993ecfc3f8U, 0x3e8389743e6b5007U, 0xbe45c8a33ee6b610U, 0xbf957ae23f048471U,
  0xbee2bf5e3dcb14eaU, 0x3d1c67fb3dad2795U, 0xbed22e4e3eced129U, 0xbeb032a73ea71903U,
  0xbf0b5bf3be9e963bU, 0x3f3b555f3e8fba18U, 0x3e7ff5d13e2239baU, 0xbf312c7e3e396424U,
  0x3efe15e63efbf8acU, 0xbe8f83c9bf34a4ccU, 0x3eb2f6653f0c6591U, 0x3ea41999bf0bcbf4U,
  0x3e0b2ba1beaeb77aU, 0xbe92289b3e94a0d3U, 0x3edd26613ee957c2U, 0x3e716534be04d519U,
  0xbf4dfba73e7cce5eU, 0x3eeb84af3d6bcd77U, 0xbe370ecfbe9b95a0U, 0x3e36afbc3ba63310U,
  0x3dc0fe2b3e83f8dfU, 0x3e9d0a9d3e177146U, 0xbc28766c3f3273b9U, 0x3e076b4d3eb80824U,
  0xbe86a875be0aa207U, 0x3f0fbe863a36b1d1U, 0x3c98f2843eb17528U, 0xbdcab8b33f0698bdU,
  0xbf115681be426617U, 0x3f35a30b3ec411edU, 0xbe6c86e53c333003U, 0x3ecdc7533d250da5U,
  0x3e6cf07ebccfbad9U, 0x3d9f97143f0072ccU, 0xbf0698fcbf58443eU, 0x3f4795d7bf671e92U,
  0xbf75ba9abf2144baU, 0x3e9e21b1bfa1228bU, 0xbfc873c03f506f9eU, 0xbf8b4d453d9b172cU,
  0x3dea1d31bf712795U, 0x3f420488c0147869U, 0xbf1bcee53e5ca0dbU, 0xbef5bf353f557841U,
  0x3e87e1b23f82dff7U, 0xbf140bfdbf28fcb1U, 0xbe75654a3e2d4f31U, 0xbef2d4fc3f15fc36U,
  0xbdadff9c3e706803U, 0xbfd6610d3f097d14U, 0xbeed90803f15f2c4U, 0xbe25dda93f079deaU,
  0xbee769c4be9ab56bU, 0xbf8d2a683ed6e88fU, 0x3f1f2776bf66fa7dU, 0x3f1cad01beb14966U,
  0xbe1c3549bde7d57bU, 0x3da596873efc5390U, 0x3f29b1bf3efa2728U, 0xbede56a9bf26d5a8U,
  0x3f8e96433e1ea862U, 0x3f032a56bf7d3acbU, 0x3f30e061bf83615aU, 0xbf8aa353bfea0700U,
  0xbd3903febee9a0e0U, 0x3e9ca701bdac5ce2U, 0x3f4ac951bf861488U, 0x3d0ab0d5bbdb4162U,
  0x3f137b9dbdce56e3U, 0xbe60dffabd6788edU, 0xbe325751U,
};


ai_handle g_ai4i_weights_table[1 + 2] = {
  AI_HANDLE_PTR(AI_MAGIC_MARKER),
  AI_HANDLE_PTR(s_ai4i_weights_array_u64),
  AI_HANDLE_PTR(AI_MAGIC_MARKER),
};

